TRT-8601-EntropyCalibration2
sample: 0
timestep: 0
cond: 39cefa98
/time_emb/Unsqueeze_output_0: 0
(Unnamed Layer* 1) [Constant]_output: 3bdf4e9d
/time_emb/Mul_output_0: 0
/time_emb/Sin_output_0: 0
/time_emb/Cos_output_0: 3c010a14
/time_emb/Concat_output_0: 3c010a14
/Unsqueeze_output_0: 3c010a14
(Unnamed Layer* 7) [Constant]_output: 3b14ba2f
(Unnamed Layer* 8) [Shuffle]_output: 3b14ba2f
/input_emb/MatMul_output_0: 0
(Unnamed Layer* 10) [Constant]_output: 3b137a10
(Unnamed Layer* 11) [Shuffle]_output: 3b137a10
/input_emb/Add_output_0: 3b137a10
(Unnamed Layer* 13) [Constant]_output: 3a9f3562
(Unnamed Layer* 14) [Shuffle]_output: 3a9f3562
/cond_obs_emb/MatMul_output_0: 3956fc6f
(Unnamed Layer* 16) [Constant]_output: 3a9f250c
(Unnamed Layer* 17) [Shuffle]_output: 3a9f250c
/cond_obs_emb/Add_output_0: 3aa62bc8
/Concat_output_0: 3a9e7cfa
(Unnamed Layer* 20) [Constant]_output: 0
/Add_output_0: 3a9e7cfa
(Unnamed Layer* 22) [Constant]_output: 3a010a0c
(Unnamed Layer* 23) [Shuffle]_output: 3a010a0c
/encoder/encoder.0/MatMul_output_0: 3c07135f
(Unnamed Layer* 25) [Constant]_output: 3a01054a
(Unnamed Layer* 26) [Shuffle]_output: 3a01054a
/encoder/encoder.0/Add_output_0: 3c0fd101
(Unnamed Layer* 29) [Shuffle]_output: 3c367d3d
/encoder/encoder.1/Div_output_0: 3bcb631b
/encoder/encoder.1/Erf_output_0: 3babc39b
(Unnamed Layer* 33) [Shuffle]_output: 3c010a14
/encoder/encoder.1/Add_output_0: 3c664251
/encoder/encoder.1/Mul_output_0: 3c106b83
(Unnamed Layer* 37) [Shuffle]_output: 3b810a14
/encoder/encoder.1/Mul_1_output_0: 3b906b83
(Unnamed Layer* 39) [Constant]_output: 39810a0d
(Unnamed Layer* 40) [Shuffle]_output: 39810a0d
/encoder/encoder.2/MatMul_output_0: 3b02b66a
(Unnamed Layer* 42) [Constant]_output: 39806981
(Unnamed Layer* 43) [Shuffle]_output: 39806981
/encoder/encoder.2/Add_output_0: 3b0e10d6
(Unnamed Layer* 45) [Constant]_output: 0
/Add_1_output_0: 3b137a10
/decoder/layers.0/norm1/LayerNormalization_output_0: 3c5fbc62
/decoder/layers.0/self_attn/Transpose_output_0: 3c5fbc62
(Unnamed Layer* 53) [Constant]_output: 3a1e0a1a
(Unnamed Layer* 54) [Shuffle]_output: 3a1e0a1a
/decoder/layers.0/self_attn/MatMul_output_0: 3c82ddf0
(Unnamed Layer* 56) [Constant]_output: 0
(Unnamed Layer* 57) [Shuffle]_output: 0
/decoder/layers.0/self_attn/Add_output_0: 3c82ddf0
/decoder/layers.0/self_attn/Reshape_2_output_0: 3c82ddf0
/decoder/layers.0/self_attn/Unsqueeze_output_0: 3c82ddf0
/decoder/layers.0/self_attn/Transpose_1_output_0: 3c82ddf0
/decoder/layers.0/self_attn/Squeeze_output_0: 3c82ddf0
/decoder/layers.0/self_attn/Gather_output_0: 3c57c132
/decoder/layers.0/self_attn/Gather_1_output_0: 3c64a869
/decoder/layers.0/self_attn/Gather_2_output_0: 3c82c834
/decoder/layers.0/self_attn/Reshape_3_output_0: 3c57c132
/decoder/layers.0/self_attn/Transpose_2_output_0: 3c57c132
/decoder/layers.0/self_attn/Reshape_4_output_0: 3c64a869
/decoder/layers.0/self_attn/Transpose_3_output_0: 3c64a869
/decoder/layers.0/self_attn/Reshape_5_output_0: 3c82c834
/decoder/layers.0/self_attn/Transpose_4_output_0: 3c82c834
/decoder/layers.0/self_attn/Reshape_6_output_0: 3c57c132
/decoder/layers.0/self_attn/Reshape_7_output_0: 3c64a869
/decoder/layers.0/self_attn/Reshape_8_output_0: 3c82c834
/decoder/layers.0/self_attn/Cast_output_0: 3e810a14
/decoder/layers.0/self_attn/Sqrt_output_0: 3d367d3d
(Unnamed Layer* 122) [Constant]_output: 3c010a14
/decoder/layers.0/self_attn/Div_output_0: 3ab67d3d
(Unnamed Layer* 129) [Constant]_output: 3c010a14
(Unnamed Layer* 130) [Shuffle]_output: 3c010a14
/decoder/layers.0/self_attn/Expand_output_0: 3c010a14
(Unnamed Layer* 148) [Shuffle]_output: 0
(Unnamed Layer* 149) [ElementWise]_output: 0
/decoder/layers.0/self_attn/Where_output_0: 7b17af5f
/decoder/layers.0/self_attn/Transpose_5_output_0: 3c64a869
/decoder/layers.0/self_attn/Sqrt_1_output_0: 3b59047a
(Unnamed Layer* 164) [Shuffle]_output: 3b59047a
/decoder/layers.0/self_attn/Mul_output_0: 3bb56d67
/decoder/layers.0/self_attn/Sqrt_2_output_0: 3b59047a
(Unnamed Layer* 167) [Shuffle]_output: 3b59047a
/decoder/layers.0/self_attn/Mul_1_output_0: 3bc0470f
/decoder/layers.0/self_attn/MatMul_1_output_0: 3b96410b
(Unnamed Layer* 170) [Shuffle]_output: 7b17af5f
/decoder/layers.0/self_attn/Add_2_output_0: 7b17af5f
(Unnamed Layer* 172) [Softmax]_output: 3c010a14
/decoder/layers.0/self_attn/MatMul_2_output_0: 3c82c834
/decoder/layers.0/self_attn/Transpose_6_output_0: 3c82c834
/decoder/layers.0/self_attn/Reshape_9_output_0: 3c82c834
(Unnamed Layer* 177) [Constant]_output: 3a010a0c
(Unnamed Layer* 178) [Matrix Multiply]_output: 3c03163e
(Unnamed Layer* 179) [Constant]_output: 0
(Unnamed Layer* 180) [Shuffle]_output: 0
/decoder/layers.0/self_attn/Gemm_output_0: 3c03163e
/decoder/layers.0/self_attn/Reshape_10_output_0: 3c03163e
/decoder/layers.0/self_attn/Transpose_7_output_0: 3c03163e
/decoder/layers.0/Add_output_0: 3c0f056e
/decoder/layers.0/norm2/LayerNormalization_output_0: 3caf7f83
/decoder/layers.0/multihead_attn/Transpose_output_0: 3caf7f83
/decoder/layers.0/multihead_attn/Transpose_1_output_0: 3b0e10d6
(Unnamed Layer* 192) [Constant]_output: 3a1e0a31
(Unnamed Layer* 193) [Shuffle]_output: 3a1e0a31
/decoder/layers.0/multihead_attn/MatMul_output_0: 3c8005c8
(Unnamed Layer* 195) [Constant]_output: 0
(Unnamed Layer* 196) [Shuffle]_output: 0
/decoder/layers.0/multihead_attn/Add_output_0: 3c8005c8
(Unnamed Layer* 198) [Constant]_output: 3a1e09b1
(Unnamed Layer* 199) [Shuffle]_output: 3a1e09b1
/decoder/layers.0/multihead_attn/MatMul_1_output_0: 3ad68bda
(Unnamed Layer* 201) [Constant]_output: 0
(Unnamed Layer* 202) [Shuffle]_output: 0
/decoder/layers.0/multihead_attn/Add_1_output_0: 3ad68bda
/decoder/layers.0/multihead_attn/Reshape_2_output_0: 3ad68bda
/decoder/layers.0/multihead_attn/Unsqueeze_output_0: 3ad68bda
/decoder/layers.0/multihead_attn/Transpose_2_output_0: 3ad68bda
/decoder/layers.0/multihead_attn/Squeeze_output_0: 3ad68bda
/decoder/layers.0/multihead_attn/Gather_output_0: 3adaf88a
/decoder/layers.0/multihead_attn/Gather_1_output_0: 3ade1f6f
/decoder/layers.0/multihead_attn/Reshape_3_output_0: 3c8005c8
/decoder/layers.0/multihead_attn/Transpose_3_output_0: 3c8005c8
/decoder/layers.0/multihead_attn/Reshape_4_output_0: 3adaf88a
/decoder/layers.0/multihead_attn/Transpose_4_output_0: 3adaf88a
/decoder/layers.0/multihead_attn/Reshape_5_output_0: 3ade1f6f
/decoder/layers.0/multihead_attn/Transpose_5_output_0: 3ade1f6f
/decoder/layers.0/multihead_attn/Reshape_6_output_0: 3c8005c8
/decoder/layers.0/multihead_attn/Reshape_7_output_0: 3adaf88a
/decoder/layers.0/multihead_attn/Reshape_8_output_0: 3ade1f6f
/decoder/layers.0/multihead_attn/Cast_output_0: 3e810a14
/decoder/layers.0/multihead_attn/Sqrt_output_0: 3d367d3d
(Unnamed Layer* 263) [Constant]_output: 3c010a14
/decoder/layers.0/multihead_attn/Div_output_0: 3ab67d3d
/decoder/layers.0/multihead_attn/Transpose_6_output_0: 3adaf88a
/decoder/layers.0/multihead_attn/Sqrt_1_output_0: 3b59047a
(Unnamed Layer* 267) [Shuffle]_output: 3b59047a
/decoder/layers.0/multihead_attn/Mul_output_0: 3bd74eb6
/decoder/layers.0/multihead_attn/Sqrt_2_output_0: 3b59047a
(Unnamed Layer* 270) [Shuffle]_output: 3b59047a
/decoder/layers.0/multihead_attn/Mul_1_output_0: 3a3821be
/decoder/layers.0/multihead_attn/MatMul_2_output_0: 39bcbd57
(Unnamed Layer* 273) [Constant]_output: 7f800000
/decoder/layers.0/multihead_attn/Add_3_output_0: 7f800000
(Unnamed Layer* 275) [Softmax]_output: 3a661b72
/decoder/layers.0/multihead_attn/MatMul_3_output_0: 3a6b02f8
/decoder/layers.0/multihead_attn/Transpose_7_output_0: 3a6b02f8
/decoder/layers.0/multihead_attn/Reshape_9_output_0: 3a6b02f8
(Unnamed Layer* 280) [Constant]_output: 3a010994
(Unnamed Layer* 281) [Matrix Multiply]_output: 3a1da559
(Unnamed Layer* 282) [Constant]_output: 0
(Unnamed Layer* 283) [Shuffle]_output: 0
/decoder/layers.0/multihead_attn/Gemm_output_0: 3a1da559
/decoder/layers.0/multihead_attn/Reshape_10_output_0: 3a1da559
/decoder/layers.0/multihead_attn/Transpose_8_output_0: 3a1da559
/decoder/layers.0/Add_1_output_0: 3c0434ca
/decoder/layers.0/norm3/LayerNormalization_output_0: 3cae6f53
(Unnamed Layer* 293) [Constant]_output: 3a010a0a
(Unnamed Layer* 294) [Shuffle]_output: 3a010a0a
/decoder/layers.0/linear1/MatMul_output_0: 3c7d0f46
(Unnamed Layer* 296) [Constant]_output: 3a00f6c9
(Unnamed Layer* 297) [Shuffle]_output: 3a00f6c9
/decoder/layers.0/linear1/Add_output_0: 3c4e82b3
(Unnamed Layer* 300) [Shuffle]_output: 3c367d3d
/decoder/layers.0/Div_output_0: 3c120668
/decoder/layers.0/Erf_output_0: 3bed6c8b
(Unnamed Layer* 304) [Shuffle]_output: 3c010a14
/decoder/layers.0/Add_2_output_0: 3c6f7992
/decoder/layers.0/Mul_output_0: 3cafc7c2
(Unnamed Layer* 308) [Shuffle]_output: 3b810a14
/decoder/layers.0/Mul_1_output_0: 3c2fc7c2
(Unnamed Layer* 310) [Constant]_output: 39810a0b
(Unnamed Layer* 311) [Shuffle]_output: 39810a0b
/decoder/layers.0/linear2/MatMul_output_0: 3b81ad7f
(Unnamed Layer* 313) [Constant]_output: 3980f1a8
(Unnamed Layer* 314) [Shuffle]_output: 3980f1a8
/decoder/layers.0/linear2/Add_output_0: 3b712988
/decoder/layers.0/Add_3_output_0: 3c189a1e
/decoder/layers.1/norm1/LayerNormalization_output_0: 3ca2aa74
/decoder/layers.1/self_attn/Transpose_output_0: 3ca2aa74
(Unnamed Layer* 323) [Constant]_output: 3a1e0a1a
(Unnamed Layer* 324) [Shuffle]_output: 3a1e0a1a
/decoder/layers.1/self_attn/MatMul_output_0: 3c92a711
(Unnamed Layer* 326) [Constant]_output: 0
(Unnamed Layer* 327) [Shuffle]_output: 0
/decoder/layers.1/self_attn/Add_output_0: 3c92a711
/decoder/layers.1/self_attn/Reshape_2_output_0: 3c92a711
/decoder/layers.1/self_attn/Unsqueeze_output_0: 3c92a711
/decoder/layers.1/self_attn/Transpose_1_output_0: 3c92a711
/decoder/layers.1/self_attn/Squeeze_output_0: 3c92a711
/decoder/layers.1/self_attn/Gather_output_0: 3c825a5b
/decoder/layers.1/self_attn/Gather_1_output_0: 3c8301fc
/decoder/layers.1/self_attn/Gather_2_output_0: 3c84ea2e
/decoder/layers.1/self_attn/Reshape_3_output_0: 3c825a5b
/decoder/layers.1/self_attn/Transpose_2_output_0: 3c825a5b
/decoder/layers.1/self_attn/Reshape_4_output_0: 3c8301fc
/decoder/layers.1/self_attn/Transpose_3_output_0: 3c8301fc
/decoder/layers.1/self_attn/Reshape_5_output_0: 3c84ea2e
/decoder/layers.1/self_attn/Transpose_4_output_0: 3c84ea2e
/decoder/layers.1/self_attn/Reshape_6_output_0: 3c825a5b
/decoder/layers.1/self_attn/Reshape_7_output_0: 3c8301fc
/decoder/layers.1/self_attn/Reshape_8_output_0: 3c84ea2e
/decoder/layers.1/self_attn/Cast_output_0: 3e810a14
/decoder/layers.1/self_attn/Sqrt_output_0: 3d367d3d
(Unnamed Layer* 389) [Constant]_output: 3c010a14
/decoder/layers.1/self_attn/Div_output_0: 3ab67d3d
(Unnamed Layer* 396) [Constant]_output: 3c010a14
(Unnamed Layer* 397) [Shuffle]_output: 3c010a14
/decoder/layers.1/self_attn/Expand_output_0: 3c010a14
(Unnamed Layer* 415) [Shuffle]_output: 0
(Unnamed Layer* 416) [ElementWise]_output: 0
/decoder/layers.1/self_attn/Where_output_0: 7b17af5f
/decoder/layers.1/self_attn/Transpose_5_output_0: 3c8301fc
/decoder/layers.1/self_attn/Sqrt_1_output_0: 3b59047a
(Unnamed Layer* 431) [Shuffle]_output: 3b59047a
/decoder/layers.1/self_attn/Mul_output_0: 3bdb3a06
/decoder/layers.1/self_attn/Sqrt_2_output_0: 3b59047a
(Unnamed Layer* 434) [Shuffle]_output: 3b59047a
/decoder/layers.1/self_attn/Mul_1_output_0: 3bdc53f1
/decoder/layers.1/self_attn/MatMul_1_output_0: 3c275d22
(Unnamed Layer* 437) [Shuffle]_output: 7b17af5f
/decoder/layers.1/self_attn/Add_2_output_0: 7b17af5f
(Unnamed Layer* 439) [Softmax]_output: 3a018306
/decoder/layers.1/self_attn/MatMul_2_output_0: 3c850b70
/decoder/layers.1/self_attn/Transpose_6_output_0: 3c850b70
/decoder/layers.1/self_attn/Reshape_9_output_0: 3c850b70
(Unnamed Layer* 444) [Constant]_output: 3a010a0c
(Unnamed Layer* 445) [Matrix Multiply]_output: 3c04d126
(Unnamed Layer* 446) [Constant]_output: 0
(Unnamed Layer* 447) [Shuffle]_output: 0
/decoder/layers.1/self_attn/Gemm_output_0: 3c04d126
/decoder/layers.1/self_attn/Reshape_10_output_0: 3c04d126
/decoder/layers.1/self_attn/Transpose_7_output_0: 3c04d126
/decoder/layers.1/Add_output_0: 3c7d20c7
/decoder/layers.1/norm2/LayerNormalization_output_0: 3cb7eeb1
/decoder/layers.1/multihead_attn/Transpose_output_0: 3cb7eeb1
(Unnamed Layer* 458) [Constant]_output: 3a1e0a31
(Unnamed Layer* 459) [Shuffle]_output: 3a1e0a31
/decoder/layers.1/multihead_attn/MatMul_output_0: 3c80889c
(Unnamed Layer* 461) [Constant]_output: 0
(Unnamed Layer* 462) [Shuffle]_output: 0
/decoder/layers.1/multihead_attn/Add_output_0: 3c80889c
(Unnamed Layer* 464) [Constant]_output: 3a1e09b1
(Unnamed Layer* 465) [Shuffle]_output: 3a1e09b1
/decoder/layers.1/multihead_attn/MatMul_1_output_0: 3ad68bda
(Unnamed Layer* 467) [Constant]_output: 0
(Unnamed Layer* 468) [Shuffle]_output: 0
/decoder/layers.1/multihead_attn/Add_1_output_0: 3ad68bda
/decoder/layers.1/multihead_attn/Reshape_2_output_0: 3ad68bda
/decoder/layers.1/multihead_attn/Unsqueeze_output_0: 3ad68bda
/decoder/layers.1/multihead_attn/Transpose_1_output_0: 3ad68bda
/decoder/layers.1/multihead_attn/Squeeze_output_0: 3ad68bda
/decoder/layers.1/multihead_attn/Gather_output_0: 3adaf88a
/decoder/layers.1/multihead_attn/Gather_1_output_0: 3ade1f6f
/decoder/layers.1/multihead_attn/Reshape_3_output_0: 3c80889c
/decoder/layers.1/multihead_attn/Transpose_2_output_0: 3c80889c
/decoder/layers.1/multihead_attn/Reshape_4_output_0: 3adaf88a
/decoder/layers.1/multihead_attn/Transpose_3_output_0: 3adaf88a
/decoder/layers.1/multihead_attn/Reshape_5_output_0: 3ade1f6f
/decoder/layers.1/multihead_attn/Transpose_4_output_0: 3ade1f6f
/decoder/layers.1/multihead_attn/Reshape_6_output_0: 3c80889c
/decoder/layers.1/multihead_attn/Reshape_7_output_0: 3adaf88a
/decoder/layers.1/multihead_attn/Reshape_8_output_0: 3ade1f6f
/decoder/layers.1/multihead_attn/Cast_output_0: 3e810a14
/decoder/layers.1/multihead_attn/Sqrt_output_0: 3d367d3d
(Unnamed Layer* 529) [Constant]_output: 3c010a14
/decoder/layers.1/multihead_attn/Div_output_0: 3ab67d3d
/decoder/layers.1/multihead_attn/Transpose_5_output_0: 3adaf88a
/decoder/layers.1/multihead_attn/Sqrt_1_output_0: 3b59047a
(Unnamed Layer* 533) [Shuffle]_output: 3b59047a
/decoder/layers.1/multihead_attn/Mul_output_0: 3bd82abc
/decoder/layers.1/multihead_attn/Sqrt_2_output_0: 3b59047a
(Unnamed Layer* 536) [Shuffle]_output: 3b59047a
/decoder/layers.1/multihead_attn/Mul_1_output_0: 3a3821be
/decoder/layers.1/multihead_attn/MatMul_2_output_0: 38d002bc
/decoder/layers.1/multihead_attn/Add_3_output_0: 7f800000
(Unnamed Layer* 540) [Softmax]_output: 3b80c292
/decoder/layers.1/multihead_attn/MatMul_3_output_0: 3a414ff8
/decoder/layers.1/multihead_attn/Transpose_6_output_0: 3a414ff8
/decoder/layers.1/multihead_attn/Reshape_9_output_0: 3a414ff8
(Unnamed Layer* 545) [Constant]_output: 3a010994
(Unnamed Layer* 546) [Matrix Multiply]_output: 39f4b63a
(Unnamed Layer* 547) [Constant]_output: 0
(Unnamed Layer* 548) [Shuffle]_output: 0
/decoder/layers.1/multihead_attn/Gemm_output_0: 39f4b63a
/decoder/layers.1/multihead_attn/Reshape_10_output_0: 39f4b63a
/decoder/layers.1/multihead_attn/Transpose_7_output_0: 39f4b63a
/decoder/layers.1/Add_1_output_0: 3c8a6149
/decoder/layers.1/norm3/LayerNormalization_output_0: 3cb6588c
(Unnamed Layer* 558) [Constant]_output: 3a010a0a
(Unnamed Layer* 559) [Shuffle]_output: 3a010a0a
/decoder/layers.1/linear1/MatMul_output_0: 3c51f7c2
(Unnamed Layer* 561) [Constant]_output: 3a00f6c9
(Unnamed Layer* 562) [Shuffle]_output: 3a00f6c9
/decoder/layers.1/linear1/Add_output_0: 3c512b37
(Unnamed Layer* 565) [Shuffle]_output: 3c367d3d
/decoder/layers.1/Div_output_0: 3c13e799
/decoder/layers.1/Erf_output_0: 3be94678
(Unnamed Layer* 569) [Shuffle]_output: 3c010a14
/decoder/layers.1/Add_2_output_0: 3c743424
/decoder/layers.1/Mul_output_0: 3ca56e61
(Unnamed Layer* 573) [Shuffle]_output: 3b810a14
/decoder/layers.1/Mul_1_output_0: 3c256e61
(Unnamed Layer* 575) [Constant]_output: 39810a0b
(Unnamed Layer* 576) [Shuffle]_output: 39810a0b
/decoder/layers.1/linear2/MatMul_output_0: 3b884dac
(Unnamed Layer* 578) [Constant]_output: 3980f1a8
(Unnamed Layer* 579) [Shuffle]_output: 3980f1a8
/decoder/layers.1/linear2/Add_output_0: 3b88bf8f
/decoder/layers.1/Add_3_output_0: 3c7f9f09
/decoder/layers.2/norm1/LayerNormalization_output_0: 3cc0c55a
/decoder/layers.2/self_attn/Transpose_output_0: 3cc0c55a
(Unnamed Layer* 588) [Constant]_output: 3a1e0a1a
(Unnamed Layer* 589) [Shuffle]_output: 3a1e0a1a
/decoder/layers.2/self_attn/MatMul_output_0: 3c93ea90
(Unnamed Layer* 591) [Constant]_output: 0
(Unnamed Layer* 592) [Shuffle]_output: 0
/decoder/layers.2/self_attn/Add_output_0: 3c93ea90
/decoder/layers.2/self_attn/Reshape_2_output_0: 3c93ea90
/decoder/layers.2/self_attn/Unsqueeze_output_0: 3c93ea90
/decoder/layers.2/self_attn/Transpose_1_output_0: 3c93ea90
/decoder/layers.2/self_attn/Squeeze_output_0: 3c93ea90
/decoder/layers.2/self_attn/Gather_output_0: 3ca234d4
/decoder/layers.2/self_attn/Gather_1_output_0: 3c869261
/decoder/layers.2/self_attn/Gather_2_output_0: 3c93d606
/decoder/layers.2/self_attn/Reshape_3_output_0: 3ca234d4
/decoder/layers.2/self_attn/Transpose_2_output_0: 3ca234d4
/decoder/layers.2/self_attn/Reshape_4_output_0: 3c869261
/decoder/layers.2/self_attn/Transpose_3_output_0: 3c869261
/decoder/layers.2/self_attn/Reshape_5_output_0: 3c93d606
/decoder/layers.2/self_attn/Transpose_4_output_0: 3c93d606
/decoder/layers.2/self_attn/Reshape_6_output_0: 3ca234d4
/decoder/layers.2/self_attn/Reshape_7_output_0: 3c869261
/decoder/layers.2/self_attn/Reshape_8_output_0: 3c93d606
/decoder/layers.2/self_attn/Cast_output_0: 3e810a14
/decoder/layers.2/self_attn/Sqrt_output_0: 3d367d3d
(Unnamed Layer* 654) [Constant]_output: 3c010a14
/decoder/layers.2/self_attn/Div_output_0: 3ab67d3d
(Unnamed Layer* 661) [Constant]_output: 3c010a14
(Unnamed Layer* 662) [Shuffle]_output: 3c010a14
/decoder/layers.2/self_attn/Expand_output_0: 3c010a14
(Unnamed Layer* 680) [Shuffle]_output: 0
(Unnamed Layer* 681) [ElementWise]_output: 0
/decoder/layers.2/self_attn/Where_output_0: 7b17af5f
/decoder/layers.2/self_attn/Transpose_5_output_0: 3c869261
/decoder/layers.2/self_attn/Sqrt_1_output_0: 3b59047a
(Unnamed Layer* 696) [Shuffle]_output: 3b59047a
/decoder/layers.2/self_attn/Mul_output_0: 3c086614
/decoder/layers.2/self_attn/Sqrt_2_output_0: 3b59047a
(Unnamed Layer* 699) [Shuffle]_output: 3b59047a
/decoder/layers.2/self_attn/Mul_1_output_0: 3be25268
/decoder/layers.2/self_attn/MatMul_1_output_0: 3bb4ea63
(Unnamed Layer* 702) [Shuffle]_output: 7b17af5f
/decoder/layers.2/self_attn/Add_2_output_0: 7b17af5f
(Unnamed Layer* 704) [Softmax]_output: 3b03a74f
/decoder/layers.2/self_attn/MatMul_2_output_0: 3c93d606
/decoder/layers.2/self_attn/Transpose_6_output_0: 3c93d606
/decoder/layers.2/self_attn/Reshape_9_output_0: 3c93d606
(Unnamed Layer* 709) [Constant]_output: 3a010a0c
(Unnamed Layer* 710) [Matrix Multiply]_output: 3c11ea71
(Unnamed Layer* 711) [Constant]_output: 0
(Unnamed Layer* 712) [Shuffle]_output: 0
/decoder/layers.2/self_attn/Gemm_output_0: 3c11ea71
/decoder/layers.2/self_attn/Reshape_10_output_0: 3c11ea71
/decoder/layers.2/self_attn/Transpose_7_output_0: 3c11ea71
/decoder/layers.2/Add_output_0: 3cd4f9ca
/decoder/layers.2/norm2/LayerNormalization_output_0: 3cc83b63
/decoder/layers.2/multihead_attn/Transpose_output_0: 3cc83b63
(Unnamed Layer* 723) [Constant]_output: 3a1e0a31
(Unnamed Layer* 724) [Shuffle]_output: 3a1e0a31
/decoder/layers.2/multihead_attn/MatMul_output_0: 3c8874ce
(Unnamed Layer* 726) [Constant]_output: 0
(Unnamed Layer* 727) [Shuffle]_output: 0
/decoder/layers.2/multihead_attn/Add_output_0: 3c8874ce
(Unnamed Layer* 729) [Constant]_output: 3a1e09b1
(Unnamed Layer* 730) [Shuffle]_output: 3a1e09b1
/decoder/layers.2/multihead_attn/MatMul_1_output_0: 3ad68bda
(Unnamed Layer* 732) [Constant]_output: 0
(Unnamed Layer* 733) [Shuffle]_output: 0
/decoder/layers.2/multihead_attn/Add_1_output_0: 3ad68bda
/decoder/layers.2/multihead_attn/Reshape_2_output_0: 3ad68bda
/decoder/layers.2/multihead_attn/Unsqueeze_output_0: 3ad68bda
/decoder/layers.2/multihead_attn/Transpose_1_output_0: 3ad68bda
/decoder/layers.2/multihead_attn/Squeeze_output_0: 3ad68bda
/decoder/layers.2/multihead_attn/Gather_output_0: 3adaf88a
/decoder/layers.2/multihead_attn/Gather_1_output_0: 3ade1f6f
/decoder/layers.2/multihead_attn/Reshape_3_output_0: 3c8874ce
/decoder/layers.2/multihead_attn/Transpose_2_output_0: 3c8874ce
/decoder/layers.2/multihead_attn/Reshape_4_output_0: 3adaf88a
/decoder/layers.2/multihead_attn/Transpose_3_output_0: 3adaf88a
/decoder/layers.2/multihead_attn/Reshape_5_output_0: 3ade1f6f
/decoder/layers.2/multihead_attn/Transpose_4_output_0: 3ade1f6f
/decoder/layers.2/multihead_attn/Reshape_6_output_0: 3c8874ce
/decoder/layers.2/multihead_attn/Reshape_7_output_0: 3adaf88a
/decoder/layers.2/multihead_attn/Reshape_8_output_0: 3ade1f6f
/decoder/layers.2/multihead_attn/Cast_output_0: 3e810a14
/decoder/layers.2/multihead_attn/Sqrt_output_0: 3d367d3d
(Unnamed Layer* 794) [Constant]_output: 3c010a14
/decoder/layers.2/multihead_attn/Div_output_0: 3ab67d3d
/decoder/layers.2/multihead_attn/Transpose_5_output_0: 3adaf88a
/decoder/layers.2/multihead_attn/Sqrt_1_output_0: 3b59047a
(Unnamed Layer* 798) [Shuffle]_output: 3b59047a
/decoder/layers.2/multihead_attn/Mul_output_0: 3be57dbc
/decoder/layers.2/multihead_attn/Sqrt_2_output_0: 3b59047a
(Unnamed Layer* 801) [Shuffle]_output: 3b59047a
/decoder/layers.2/multihead_attn/Mul_1_output_0: 3a3821be
/decoder/layers.2/multihead_attn/MatMul_2_output_0: 38a6949c
/decoder/layers.2/multihead_attn/Add_3_output_0: 7f800000
(Unnamed Layer* 805) [Softmax]_output: 3b88ec41
/decoder/layers.2/multihead_attn/MatMul_3_output_0: 3a6907bb
/decoder/layers.2/multihead_attn/Transpose_6_output_0: 3a6907bb
/decoder/layers.2/multihead_attn/Reshape_9_output_0: 3a6907bb
(Unnamed Layer* 810) [Constant]_output: 3a010994
(Unnamed Layer* 811) [Matrix Multiply]_output: 3a1eea70
(Unnamed Layer* 812) [Constant]_output: 0
(Unnamed Layer* 813) [Shuffle]_output: 0
/decoder/layers.2/multihead_attn/Gemm_output_0: 3a1eea70
/decoder/layers.2/multihead_attn/Reshape_10_output_0: 3a1eea70
/decoder/layers.2/multihead_attn/Transpose_7_output_0: 3a1eea70
/decoder/layers.2/Add_1_output_0: 3ccf3c5c
/decoder/layers.2/norm3/LayerNormalization_output_0: 3cc6b32a
(Unnamed Layer* 823) [Constant]_output: 3a010a0a
(Unnamed Layer* 824) [Shuffle]_output: 3a010a0a
/decoder/layers.2/linear1/MatMul_output_0: 3c5951a8
(Unnamed Layer* 826) [Constant]_output: 3a00f6c9
(Unnamed Layer* 827) [Shuffle]_output: 3a00f6c9
/decoder/layers.2/linear1/Add_output_0: 3c5b93d7
(Unnamed Layer* 830) [Shuffle]_output: 3c367d3d
/decoder/layers.2/Div_output_0: 3c1b43c7
/decoder/layers.2/Erf_output_0: 3be7f606
(Unnamed Layer* 834) [Shuffle]_output: 3c010a14
/decoder/layers.2/Add_2_output_0: 3c70f2f9
/decoder/layers.2/Mul_output_0: 3ca51d71
(Unnamed Layer* 838) [Shuffle]_output: 3b810a14
/decoder/layers.2/Mul_1_output_0: 3c251d71
(Unnamed Layer* 840) [Constant]_output: 39810a0b
(Unnamed Layer* 841) [Shuffle]_output: 39810a0b
/decoder/layers.2/linear2/MatMul_output_0: 3b7b1ac4
(Unnamed Layer* 843) [Constant]_output: 3980f1a8
(Unnamed Layer* 844) [Shuffle]_output: 3980f1a8
/decoder/layers.2/linear2/Add_output_0: 3b9742e7
/decoder/layers.2/Add_3_output_0: 3cc0e458
/decoder/layers.3/norm1/LayerNormalization_output_0: 3cadeb7a
/decoder/layers.3/self_attn/Transpose_output_0: 3cadeb7a
(Unnamed Layer* 853) [Constant]_output: 3a1e0a1a
(Unnamed Layer* 854) [Shuffle]_output: 3a1e0a1a
/decoder/layers.3/self_attn/MatMul_output_0: 3c99bc3c
(Unnamed Layer* 856) [Constant]_output: 0
(Unnamed Layer* 857) [Shuffle]_output: 0
/decoder/layers.3/self_attn/Add_output_0: 3c99bc3c
/decoder/layers.3/self_attn/Reshape_2_output_0: 3c99bc3c
/decoder/layers.3/self_attn/Unsqueeze_output_0: 3c99bc3c
/decoder/layers.3/self_attn/Transpose_1_output_0: 3c99bc3c
/decoder/layers.3/self_attn/Squeeze_output_0: 3c99bc3c
/decoder/layers.3/self_attn/Gather_output_0: 3c8e4e6e
/decoder/layers.3/self_attn/Gather_1_output_0: 3c86e30b
/decoder/layers.3/self_attn/Gather_2_output_0: 3c95c4c5
/decoder/layers.3/self_attn/Reshape_3_output_0: 3c8e4e6e
/decoder/layers.3/self_attn/Transpose_2_output_0: 3c8e4e6e
/decoder/layers.3/self_attn/Reshape_4_output_0: 3c86e30b
/decoder/layers.3/self_attn/Transpose_3_output_0: 3c86e30b
/decoder/layers.3/self_attn/Reshape_5_output_0: 3c95c4c5
/decoder/layers.3/self_attn/Transpose_4_output_0: 3c95c4c5
/decoder/layers.3/self_attn/Reshape_6_output_0: 3c8e4e6e
/decoder/layers.3/self_attn/Reshape_7_output_0: 3c86e30b
/decoder/layers.3/self_attn/Reshape_8_output_0: 3c95c4c5
/decoder/layers.3/self_attn/Cast_output_0: 3e810a14
/decoder/layers.3/self_attn/Sqrt_output_0: 3d367d3d
(Unnamed Layer* 919) [Constant]_output: 3c010a14
/decoder/layers.3/self_attn/Div_output_0: 3ab67d3d
(Unnamed Layer* 926) [Constant]_output: 3c010a14
(Unnamed Layer* 927) [Shuffle]_output: 3c010a14
/decoder/layers.3/self_attn/Expand_output_0: 3c010a14
(Unnamed Layer* 945) [Shuffle]_output: 0
(Unnamed Layer* 946) [ElementWise]_output: 0
/decoder/layers.3/self_attn/Where_output_0: 7b17af5f
/decoder/layers.3/self_attn/Transpose_5_output_0: 3c86e30b
/decoder/layers.3/self_attn/Sqrt_1_output_0: 3b59047a
(Unnamed Layer* 961) [Shuffle]_output: 3b59047a
/decoder/layers.3/self_attn/Mul_output_0: 3bef5470
/decoder/layers.3/self_attn/Sqrt_2_output_0: 3b59047a
(Unnamed Layer* 964) [Shuffle]_output: 3b59047a
/decoder/layers.3/self_attn/Mul_1_output_0: 3be2da10
/decoder/layers.3/self_attn/MatMul_1_output_0: 3bd8a541
(Unnamed Layer* 967) [Shuffle]_output: 7b17af5f
/decoder/layers.3/self_attn/Add_2_output_0: 7b17af5f
(Unnamed Layer* 969) [Softmax]_output: 3b042851
/decoder/layers.3/self_attn/MatMul_2_output_0: 3c97fe9b
/decoder/layers.3/self_attn/Transpose_6_output_0: 3c97fe9b
/decoder/layers.3/self_attn/Reshape_9_output_0: 3c97fe9b
(Unnamed Layer* 974) [Constant]_output: 3a010a0c
(Unnamed Layer* 975) [Matrix Multiply]_output: 3c1c6697
(Unnamed Layer* 976) [Constant]_output: 0
(Unnamed Layer* 977) [Shuffle]_output: 0
/decoder/layers.3/self_attn/Gemm_output_0: 3c1c6697
/decoder/layers.3/self_attn/Reshape_10_output_0: 3c1c6697
/decoder/layers.3/self_attn/Transpose_7_output_0: 3c1c6697
/decoder/layers.3/Add_output_0: 3cfc84d1
/decoder/layers.3/norm2/LayerNormalization_output_0: 3cc9d55f
/decoder/layers.3/multihead_attn/Transpose_output_0: 3cc9d55f
(Unnamed Layer* 988) [Constant]_output: 3a1e0a31
(Unnamed Layer* 989) [Shuffle]_output: 3a1e0a31
/decoder/layers.3/multihead_attn/MatMul_output_0: 3c8b6547
(Unnamed Layer* 991) [Constant]_output: 0
(Unnamed Layer* 992) [Shuffle]_output: 0
/decoder/layers.3/multihead_attn/Add_output_0: 3c8b6547
(Unnamed Layer* 994) [Constant]_output: 3a1e09b1
(Unnamed Layer* 995) [Shuffle]_output: 3a1e09b1
/decoder/layers.3/multihead_attn/MatMul_1_output_0: 3ad68bda
(Unnamed Layer* 997) [Constant]_output: 0
(Unnamed Layer* 998) [Shuffle]_output: 0
/decoder/layers.3/multihead_attn/Add_1_output_0: 3ad68bda
/decoder/layers.3/multihead_attn/Reshape_2_output_0: 3ad68bda
/decoder/layers.3/multihead_attn/Unsqueeze_output_0: 3ad68bda
/decoder/layers.3/multihead_attn/Transpose_1_output_0: 3ad68bda
/decoder/layers.3/multihead_attn/Squeeze_output_0: 3ad68bda
/decoder/layers.3/multihead_attn/Gather_output_0: 3adaf88a
/decoder/layers.3/multihead_attn/Gather_1_output_0: 3ade1f6f
/decoder/layers.3/multihead_attn/Reshape_3_output_0: 3c8b6547
/decoder/layers.3/multihead_attn/Transpose_2_output_0: 3c8b6547
/decoder/layers.3/multihead_attn/Reshape_4_output_0: 3adaf88a
/decoder/layers.3/multihead_attn/Transpose_3_output_0: 3adaf88a
/decoder/layers.3/multihead_attn/Reshape_5_output_0: 3ade1f6f
/decoder/layers.3/multihead_attn/Transpose_4_output_0: 3ade1f6f
/decoder/layers.3/multihead_attn/Reshape_6_output_0: 3c8b6547
/decoder/layers.3/multihead_attn/Reshape_7_output_0: 3adaf88a
/decoder/layers.3/multihead_attn/Reshape_8_output_0: 3ade1f6f
/decoder/layers.3/multihead_attn/Cast_output_0: 3e810a14
/decoder/layers.3/multihead_attn/Sqrt_output_0: 3d367d3d
(Unnamed Layer* 1059) [Constant]_output: 3c010a14
/decoder/layers.3/multihead_attn/Div_output_0: 3ab67d3d
/decoder/layers.3/multihead_attn/Transpose_5_output_0: 3adaf88a
/decoder/layers.3/multihead_attn/Sqrt_1_output_0: 3b59047a
(Unnamed Layer* 1063) [Shuffle]_output: 3b59047a
/decoder/layers.3/multihead_attn/Mul_output_0: 3bea6f3e
/decoder/layers.3/multihead_attn/Sqrt_2_output_0: 3b59047a
(Unnamed Layer* 1066) [Shuffle]_output: 3b59047a
/decoder/layers.3/multihead_attn/Mul_1_output_0: 3a3821be
/decoder/layers.3/multihead_attn/MatMul_2_output_0: 39f6b020
/decoder/layers.3/multihead_attn/Add_3_output_0: 7f800000
(Unnamed Layer* 1070) [Softmax]_output: 3a657ed3
/decoder/layers.3/multihead_attn/MatMul_3_output_0: 3a698310
/decoder/layers.3/multihead_attn/Transpose_6_output_0: 3a698310
/decoder/layers.3/multihead_attn/Reshape_9_output_0: 3a698310
(Unnamed Layer* 1075) [Constant]_output: 3a010994
(Unnamed Layer* 1076) [Matrix Multiply]_output: 3a09d5f8
(Unnamed Layer* 1077) [Constant]_output: 0
(Unnamed Layer* 1078) [Shuffle]_output: 0
/decoder/layers.3/multihead_attn/Gemm_output_0: 3a09d5f8
/decoder/layers.3/multihead_attn/Reshape_10_output_0: 3a09d5f8
/decoder/layers.3/multihead_attn/Transpose_7_output_0: 3a09d5f8
/decoder/layers.3/Add_1_output_0: 3cfe35f9
/decoder/layers.3/norm3/LayerNormalization_output_0: 3cc6b91b
(Unnamed Layer* 1088) [Constant]_output: 3a010a0a
(Unnamed Layer* 1089) [Shuffle]_output: 3a010a0a
/decoder/layers.3/linear1/MatMul_output_0: 3c671360
(Unnamed Layer* 1091) [Constant]_output: 3a00f6c9
(Unnamed Layer* 1092) [Shuffle]_output: 3a00f6c9
/decoder/layers.3/linear1/Add_output_0: 3c636050
(Unnamed Layer* 1095) [Shuffle]_output: 3c367d3d
/decoder/layers.3/Div_output_0: 3c20c77e
/decoder/layers.3/Erf_output_0: 3be707bc
(Unnamed Layer* 1099) [Shuffle]_output: 3c010a14
/decoder/layers.3/Add_2_output_0: 3c781990
/decoder/layers.3/Mul_output_0: 3caed5e3
(Unnamed Layer* 1103) [Shuffle]_output: 3b810a14
/decoder/layers.3/Mul_1_output_0: 3c2ed5e3
(Unnamed Layer* 1105) [Constant]_output: 39810a0b
(Unnamed Layer* 1106) [Shuffle]_output: 39810a0b
/decoder/layers.3/linear2/MatMul_output_0: 3b6ba973
(Unnamed Layer* 1108) [Constant]_output: 3980f1a8
(Unnamed Layer* 1109) [Shuffle]_output: 3980f1a8
/decoder/layers.3/linear2/Add_output_0: 3b6dc79c
/decoder/layers.3/Add_3_output_0: 3d1657a4
/decoder/layers.4/norm1/LayerNormalization_output_0: 3cca6f35
/decoder/layers.4/self_attn/Transpose_output_0: 3cca6f35
(Unnamed Layer* 1118) [Constant]_output: 3a1e0a1a
(Unnamed Layer* 1119) [Shuffle]_output: 3a1e0a1a
/decoder/layers.4/self_attn/MatMul_output_0: 3c957e10
(Unnamed Layer* 1121) [Constant]_output: 0
(Unnamed Layer* 1122) [Shuffle]_output: 0
/decoder/layers.4/self_attn/Add_output_0: 3c957e10
/decoder/layers.4/self_attn/Reshape_2_output_0: 3c957e10
/decoder/layers.4/self_attn/Unsqueeze_output_0: 3c957e10
/decoder/layers.4/self_attn/Transpose_1_output_0: 3c957e10
/decoder/layers.4/self_attn/Squeeze_output_0: 3c957e10
/decoder/layers.4/self_attn/Gather_output_0: 3c8ceac5
/decoder/layers.4/self_attn/Gather_1_output_0: 3c80a627
/decoder/layers.4/self_attn/Gather_2_output_0: 3c945b22
/decoder/layers.4/self_attn/Reshape_3_output_0: 3c8ceac5
/decoder/layers.4/self_attn/Transpose_2_output_0: 3c8ceac5
/decoder/layers.4/self_attn/Reshape_4_output_0: 3c80a627
/decoder/layers.4/self_attn/Transpose_3_output_0: 3c80a627
/decoder/layers.4/self_attn/Reshape_5_output_0: 3c945b22
/decoder/layers.4/self_attn/Transpose_4_output_0: 3c945b22
/decoder/layers.4/self_attn/Reshape_6_output_0: 3c8ceac5
/decoder/layers.4/self_attn/Reshape_7_output_0: 3c80a627
/decoder/layers.4/self_attn/Reshape_8_output_0: 3c945b22
/decoder/layers.4/self_attn/Cast_output_0: 3e810a14
/decoder/layers.4/self_attn/Sqrt_output_0: 3d367d3d
(Unnamed Layer* 1184) [Constant]_output: 3c010a14
/decoder/layers.4/self_attn/Div_output_0: 3ab67d3d
(Unnamed Layer* 1191) [Constant]_output: 3c010a14
(Unnamed Layer* 1192) [Shuffle]_output: 3c010a14
/decoder/layers.4/self_attn/Expand_output_0: 3c010a14
(Unnamed Layer* 1210) [Shuffle]_output: 0
(Unnamed Layer* 1211) [ElementWise]_output: 0
/decoder/layers.4/self_attn/Where_output_0: 7b17af5f
/decoder/layers.4/self_attn/Transpose_5_output_0: 3c80a627
/decoder/layers.4/self_attn/Sqrt_1_output_0: 3b59047a
(Unnamed Layer* 1226) [Shuffle]_output: 3b59047a
/decoder/layers.4/self_attn/Mul_output_0: 3becfe4a
/decoder/layers.4/self_attn/Sqrt_2_output_0: 3b59047a
(Unnamed Layer* 1229) [Shuffle]_output: 3b59047a
/decoder/layers.4/self_attn/Mul_1_output_0: 3bd85c6b
/decoder/layers.4/self_attn/MatMul_1_output_0: 3c0dd12f
(Unnamed Layer* 1232) [Shuffle]_output: 7b17af5f
/decoder/layers.4/self_attn/Add_2_output_0: 7b17af5f
(Unnamed Layer* 1234) [Softmax]_output: 3b03264d
/decoder/layers.4/self_attn/MatMul_2_output_0: 3c83cd5d
/decoder/layers.4/self_attn/Transpose_6_output_0: 3c83cd5d
/decoder/layers.4/self_attn/Reshape_9_output_0: 3c83cd5d
(Unnamed Layer* 1239) [Constant]_output: 3a010a0c
(Unnamed Layer* 1240) [Matrix Multiply]_output: 3c1e7dec
(Unnamed Layer* 1241) [Constant]_output: 0
(Unnamed Layer* 1242) [Shuffle]_output: 0
/decoder/layers.4/self_attn/Gemm_output_0: 3c1e7dec
/decoder/layers.4/self_attn/Reshape_10_output_0: 3c1e7dec
/decoder/layers.4/self_attn/Transpose_7_output_0: 3c1e7dec
/decoder/layers.4/Add_output_0: 3d29bb31
/decoder/layers.4/norm2/LayerNormalization_output_0: 3cc00c03
/decoder/layers.4/multihead_attn/Transpose_output_0: 3cc00c03
(Unnamed Layer* 1253) [Constant]_output: 3a1e0a31
(Unnamed Layer* 1254) [Shuffle]_output: 3a1e0a31
/decoder/layers.4/multihead_attn/MatMul_output_0: 3c89943c
(Unnamed Layer* 1256) [Constant]_output: 0
(Unnamed Layer* 1257) [Shuffle]_output: 0
/decoder/layers.4/multihead_attn/Add_output_0: 3c89943c
(Unnamed Layer* 1259) [Constant]_output: 3a1e09b1
(Unnamed Layer* 1260) [Shuffle]_output: 3a1e09b1
/decoder/layers.4/multihead_attn/MatMul_1_output_0: 3ad68bda
(Unnamed Layer* 1262) [Constant]_output: 0
(Unnamed Layer* 1263) [Shuffle]_output: 0
/decoder/layers.4/multihead_attn/Add_1_output_0: 3ad68bda
/decoder/layers.4/multihead_attn/Reshape_2_output_0: 3ad68bda
/decoder/layers.4/multihead_attn/Unsqueeze_output_0: 3ad68bda
/decoder/layers.4/multihead_attn/Transpose_1_output_0: 3ad68bda
/decoder/layers.4/multihead_attn/Squeeze_output_0: 3ad68bda
/decoder/layers.4/multihead_attn/Gather_output_0: 3adaf88a
/decoder/layers.4/multihead_attn/Gather_1_output_0: 3ade1f6f
/decoder/layers.4/multihead_attn/Reshape_3_output_0: 3c89943c
/decoder/layers.4/multihead_attn/Transpose_2_output_0: 3c89943c
/decoder/layers.4/multihead_attn/Reshape_4_output_0: 3adaf88a
/decoder/layers.4/multihead_attn/Transpose_3_output_0: 3adaf88a
/decoder/layers.4/multihead_attn/Reshape_5_output_0: 3ade1f6f
/decoder/layers.4/multihead_attn/Transpose_4_output_0: 3ade1f6f
/decoder/layers.4/multihead_attn/Reshape_6_output_0: 3c89943c
/decoder/layers.4/multihead_attn/Reshape_7_output_0: 3adaf88a
/decoder/layers.4/multihead_attn/Reshape_8_output_0: 3ade1f6f
/decoder/layers.4/multihead_attn/Cast_output_0: 3e810a14
/decoder/layers.4/multihead_attn/Sqrt_output_0: 3d367d3d
(Unnamed Layer* 1324) [Constant]_output: 3c010a14
/decoder/layers.4/multihead_attn/Div_output_0: 3ab67d3d
/decoder/layers.4/multihead_attn/Transpose_5_output_0: 3adaf88a
/decoder/layers.4/multihead_attn/Sqrt_1_output_0: 3b59047a
(Unnamed Layer* 1328) [Shuffle]_output: 3b59047a
/decoder/layers.4/multihead_attn/Mul_output_0: 3be76124
/decoder/layers.4/multihead_attn/Sqrt_2_output_0: 3b59047a
(Unnamed Layer* 1331) [Shuffle]_output: 3b59047a
/decoder/layers.4/multihead_attn/Mul_1_output_0: 3a3821be
/decoder/layers.4/multihead_attn/MatMul_2_output_0: 3a69e56e
/decoder/layers.4/multihead_attn/Add_3_output_0: 7f800000
(Unnamed Layer* 1335) [Softmax]_output: 3a62c951
/decoder/layers.4/multihead_attn/MatMul_3_output_0: 3a4d3b99
/decoder/layers.4/multihead_attn/Transpose_6_output_0: 3a4d3b99
/decoder/layers.4/multihead_attn/Reshape_9_output_0: 3a4d3b99
(Unnamed Layer* 1340) [Constant]_output: 3a010994
(Unnamed Layer* 1341) [Matrix Multiply]_output: 3a0bd38e
(Unnamed Layer* 1342) [Constant]_output: 0
(Unnamed Layer* 1343) [Shuffle]_output: 0
/decoder/layers.4/multihead_attn/Gemm_output_0: 3a0bd38e
/decoder/layers.4/multihead_attn/Reshape_10_output_0: 3a0bd38e
/decoder/layers.4/multihead_attn/Transpose_7_output_0: 3a0bd38e
/decoder/layers.4/Add_1_output_0: 3d289fe3
/decoder/layers.4/norm3/LayerNormalization_output_0: 3cc2179e
(Unnamed Layer* 1353) [Constant]_output: 3a010a0a
(Unnamed Layer* 1354) [Shuffle]_output: 3a010a0a
/decoder/layers.4/linear1/MatMul_output_0: 3c4d9cea
(Unnamed Layer* 1356) [Constant]_output: 3a00f6c9
(Unnamed Layer* 1357) [Shuffle]_output: 3a00f6c9
/decoder/layers.4/linear1/Add_output_0: 3c62cf37
(Unnamed Layer* 1360) [Shuffle]_output: 3c367d3d
/decoder/layers.4/Div_output_0: 3c2060e6
/decoder/layers.4/Erf_output_0: 3be5fcf5
(Unnamed Layer* 1364) [Shuffle]_output: 3c010a14
/decoder/layers.4/Add_2_output_0: 3c740bc8
/decoder/layers.4/Mul_output_0: 3cd8110c
(Unnamed Layer* 1368) [Shuffle]_output: 3b810a14
/decoder/layers.4/Mul_1_output_0: 3c58110c
(Unnamed Layer* 1370) [Constant]_output: 39810a0b
(Unnamed Layer* 1371) [Shuffle]_output: 39810a0b
/decoder/layers.4/linear2/MatMul_output_0: 3b6a9f85
(Unnamed Layer* 1373) [Constant]_output: 3980f1a8
(Unnamed Layer* 1374) [Shuffle]_output: 3980f1a8
/decoder/layers.4/linear2/Add_output_0: 3b93631a
/decoder/layers.4/Add_3_output_0: 3d371ce9
/decoder/layers.5/norm1/LayerNormalization_output_0: 3cc21ce6
/decoder/layers.5/self_attn/Transpose_output_0: 3cc21ce6
(Unnamed Layer* 1383) [Constant]_output: 3a1e0a1a
(Unnamed Layer* 1384) [Shuffle]_output: 3a1e0a1a
/decoder/layers.5/self_attn/MatMul_output_0: 3c8eb41f
(Unnamed Layer* 1386) [Constant]_output: 0
(Unnamed Layer* 1387) [Shuffle]_output: 0
/decoder/layers.5/self_attn/Add_output_0: 3c8eb41f
/decoder/layers.5/self_attn/Reshape_2_output_0: 3c8eb41f
/decoder/layers.5/self_attn/Unsqueeze_output_0: 3c8eb41f
/decoder/layers.5/self_attn/Transpose_1_output_0: 3c8eb41f
/decoder/layers.5/self_attn/Squeeze_output_0: 3c8eb41f
/decoder/layers.5/self_attn/Gather_output_0: 3c8af334
/decoder/layers.5/self_attn/Gather_1_output_0: 3c72e7f1
/decoder/layers.5/self_attn/Gather_2_output_0: 3c8e40fd
/decoder/layers.5/self_attn/Reshape_3_output_0: 3c8af334
/decoder/layers.5/self_attn/Transpose_2_output_0: 3c8af334
/decoder/layers.5/self_attn/Reshape_4_output_0: 3c72e7f1
/decoder/layers.5/self_attn/Transpose_3_output_0: 3c72e7f1
/decoder/layers.5/self_attn/Reshape_5_output_0: 3c8e40fd
/decoder/layers.5/self_attn/Transpose_4_output_0: 3c8e40fd
/decoder/layers.5/self_attn/Reshape_6_output_0: 3c8af334
/decoder/layers.5/self_attn/Reshape_7_output_0: 3c72e7f1
/decoder/layers.5/self_attn/Reshape_8_output_0: 3c8e40fd
/decoder/layers.5/self_attn/Cast_output_0: 3e810a14
/decoder/layers.5/self_attn/Sqrt_output_0: 3d367d3d
(Unnamed Layer* 1449) [Constant]_output: 3c010a14
/decoder/layers.5/self_attn/Div_output_0: 3ab67d3d
(Unnamed Layer* 1456) [Constant]_output: 3c010a14
(Unnamed Layer* 1457) [Shuffle]_output: 3c010a14
/decoder/layers.5/self_attn/Expand_output_0: 3c010a14
(Unnamed Layer* 1475) [Shuffle]_output: 0
(Unnamed Layer* 1476) [ElementWise]_output: 0
/decoder/layers.5/self_attn/Where_output_0: 7b17af5f
/decoder/layers.5/self_attn/Transpose_5_output_0: 3c72e7f1
/decoder/layers.5/self_attn/Sqrt_1_output_0: 3b59047a
(Unnamed Layer* 1491) [Shuffle]_output: 3b59047a
/decoder/layers.5/self_attn/Mul_output_0: 3be9af67
/decoder/layers.5/self_attn/Sqrt_2_output_0: 3b59047a
(Unnamed Layer* 1494) [Shuffle]_output: 3b59047a
/decoder/layers.5/self_attn/Mul_1_output_0: 3bcc4242
/decoder/layers.5/self_attn/MatMul_1_output_0: 3c1afe3d
(Unnamed Layer* 1497) [Shuffle]_output: 7b17af5f
/decoder/layers.5/self_attn/Add_2_output_0: 7b17af5f
(Unnamed Layer* 1499) [Softmax]_output: 3b2cf9f4
/decoder/layers.5/self_attn/MatMul_2_output_0: 3c918589
/decoder/layers.5/self_attn/Transpose_6_output_0: 3c918589
/decoder/layers.5/self_attn/Reshape_9_output_0: 3c918589
(Unnamed Layer* 1504) [Constant]_output: 3a010a0c
(Unnamed Layer* 1505) [Matrix Multiply]_output: 3c1d31fa
(Unnamed Layer* 1506) [Constant]_output: 0
(Unnamed Layer* 1507) [Shuffle]_output: 0
/decoder/layers.5/self_attn/Gemm_output_0: 3c1d31fa
/decoder/layers.5/self_attn/Reshape_10_output_0: 3c1d31fa
/decoder/layers.5/self_attn/Transpose_7_output_0: 3c1d31fa
/decoder/layers.5/Add_output_0: 3d513509
/decoder/layers.5/norm2/LayerNormalization_output_0: 3cc437d9
/decoder/layers.5/multihead_attn/Transpose_output_0: 3cc437d9
(Unnamed Layer* 1518) [Constant]_output: 3a1e0a31
(Unnamed Layer* 1519) [Shuffle]_output: 3a1e0a31
/decoder/layers.5/multihead_attn/MatMul_output_0: 3c8a0559
(Unnamed Layer* 1521) [Constant]_output: 0
(Unnamed Layer* 1522) [Shuffle]_output: 0
/decoder/layers.5/multihead_attn/Add_output_0: 3c8a0559
(Unnamed Layer* 1524) [Constant]_output: 3a1e09b1
(Unnamed Layer* 1525) [Shuffle]_output: 3a1e09b1
/decoder/layers.5/multihead_attn/MatMul_1_output_0: 3ad68bda
(Unnamed Layer* 1527) [Constant]_output: 0
(Unnamed Layer* 1528) [Shuffle]_output: 0
/decoder/layers.5/multihead_attn/Add_1_output_0: 3ad68bda
/decoder/layers.5/multihead_attn/Reshape_2_output_0: 3ad68bda
/decoder/layers.5/multihead_attn/Unsqueeze_output_0: 3ad68bda
/decoder/layers.5/multihead_attn/Transpose_1_output_0: 3ad68bda
/decoder/layers.5/multihead_attn/Squeeze_output_0: 3ad68bda
/decoder/layers.5/multihead_attn/Gather_output_0: 3adaf88a
/decoder/layers.5/multihead_attn/Gather_1_output_0: 3ade1f6f
/decoder/layers.5/multihead_attn/Reshape_3_output_0: 3c8a0559
/decoder/layers.5/multihead_attn/Transpose_2_output_0: 3c8a0559
/decoder/layers.5/multihead_attn/Reshape_4_output_0: 3adaf88a
/decoder/layers.5/multihead_attn/Transpose_3_output_0: 3adaf88a
/decoder/layers.5/multihead_attn/Reshape_5_output_0: 3ade1f6f
/decoder/layers.5/multihead_attn/Transpose_4_output_0: 3ade1f6f
/decoder/layers.5/multihead_attn/Reshape_6_output_0: 3c8a0559
/decoder/layers.5/multihead_attn/Reshape_7_output_0: 3adaf88a
/decoder/layers.5/multihead_attn/Reshape_8_output_0: 3ade1f6f
/decoder/layers.5/multihead_attn/Cast_output_0: 3e810a14
/decoder/layers.5/multihead_attn/Sqrt_output_0: 3d367d3d
(Unnamed Layer* 1589) [Constant]_output: 3c010a14
/decoder/layers.5/multihead_attn/Div_output_0: 3ab67d3d
/decoder/layers.5/multihead_attn/Transpose_5_output_0: 3adaf88a
/decoder/layers.5/multihead_attn/Sqrt_1_output_0: 3b59047a
(Unnamed Layer* 1593) [Shuffle]_output: 3b59047a
/decoder/layers.5/multihead_attn/Mul_output_0: 3be81f5f
/decoder/layers.5/multihead_attn/Sqrt_2_output_0: 3b59047a
(Unnamed Layer* 1596) [Shuffle]_output: 3b59047a
/decoder/layers.5/multihead_attn/Mul_1_output_0: 3a3821be
/decoder/layers.5/multihead_attn/MatMul_2_output_0: 3a5d66a5
/decoder/layers.5/multihead_attn/Add_3_output_0: 7f800000
(Unnamed Layer* 1600) [Softmax]_output: 3b393c4d
/decoder/layers.5/multihead_attn/MatMul_3_output_0: 3a4ee6b4
/decoder/layers.5/multihead_attn/Transpose_6_output_0: 3a4ee6b4
/decoder/layers.5/multihead_attn/Reshape_9_output_0: 3a4ee6b4
(Unnamed Layer* 1605) [Constant]_output: 3a010994
(Unnamed Layer* 1606) [Matrix Multiply]_output: 3a09198e
(Unnamed Layer* 1607) [Constant]_output: 0
(Unnamed Layer* 1608) [Shuffle]_output: 0
/decoder/layers.5/multihead_attn/Gemm_output_0: 3a09198e
/decoder/layers.5/multihead_attn/Reshape_10_output_0: 3a09198e
/decoder/layers.5/multihead_attn/Transpose_7_output_0: 3a09198e
/decoder/layers.5/Add_1_output_0: 3d5065d1
/decoder/layers.5/norm3/LayerNormalization_output_0: 3cc35d5c
(Unnamed Layer* 1618) [Constant]_output: 3a010a0a
(Unnamed Layer* 1619) [Shuffle]_output: 3a010a0a
/decoder/layers.5/linear1/MatMul_output_0: 3c51cd0c
(Unnamed Layer* 1621) [Constant]_output: 3a00f6c9
(Unnamed Layer* 1622) [Shuffle]_output: 3a00f6c9
/decoder/layers.5/linear1/Add_output_0: 3c605df0
(Unnamed Layer* 1625) [Shuffle]_output: 3c367d3d
/decoder/layers.5/Div_output_0: 3c1ea6c2
/decoder/layers.5/Erf_output_0: 3be6d6aa
(Unnamed Layer* 1629) [Shuffle]_output: 3c010a14
/decoder/layers.5/Add_2_output_0: 3c76032a
/decoder/layers.5/Mul_output_0: 3cc89a0e
(Unnamed Layer* 1633) [Shuffle]_output: 3b810a14
/decoder/layers.5/Mul_1_output_0: 3c489a0e
(Unnamed Layer* 1635) [Constant]_output: 39810a0b
(Unnamed Layer* 1636) [Shuffle]_output: 39810a0b
/decoder/layers.5/linear2/MatMul_output_0: 3b8d6dac
(Unnamed Layer* 1638) [Constant]_output: 3980f1a8
(Unnamed Layer* 1639) [Shuffle]_output: 3980f1a8
/decoder/layers.5/linear2/Add_output_0: 3b6bea3c
/decoder/layers.5/Add_3_output_0: 3d5789a7
/ln_f/LayerNormalization_output_0: 3cc30ae4
(Unnamed Layer* 1647) [Constant]_output: 3a010505
(Unnamed Layer* 1648) [Shuffle]_output: 3a010505
/head/MatMul_output_0: 3c320331
(Unnamed Layer* 1650) [Constant]_output: 39cefa98
(Unnamed Layer* 1651) [Shuffle]_output: 39cefa98
action: 3c30d3ca
