TRT-8601-EntropyCalibration2
sample: 0
timestep: 0
cond: 0
/time_emb/Unsqueeze_output_0: 0
(Unnamed Layer* 1) [Constant]_output: 3bdf4e9d
/time_emb/Mul_output_0: 0
/time_emb/Sin_output_0: 0
/time_emb/Cos_output_0: 3c010a14
/time_emb/Concat_output_0: 3c010a14
/Unsqueeze_output_0: 3c010a14
(Unnamed Layer* 7) [Constant]_output: 3b00fe2d
(Unnamed Layer* 8) [Shuffle]_output: 3b00fe2d
/input_emb/MatMul_output_0: 0
(Unnamed Layer* 10) [Constant]_output: 3b0022a0
(Unnamed Layer* 11) [Shuffle]_output: 3b0022a0
/input_emb/Add_output_0: 3b0022a0
(Unnamed Layer* 13) [Constant]_output: 3b22bb18
(Unnamed Layer* 14) [Shuffle]_output: 3b22bb18
/cond_obs_emb/MatMul_output_0: 0
(Unnamed Layer* 16) [Constant]_output: 3b22439e
(Unnamed Layer* 17) [Shuffle]_output: 3b22439e
/cond_obs_emb/Add_output_0: 3b22439e
/Concat_output_0: 3c010a14
(Unnamed Layer* 20) [Constant]_output: 0
/Add_output_0: 3c010a14
(Unnamed Layer* 22) [Constant]_output: 3a0109f5
(Unnamed Layer* 23) [Shuffle]_output: 3a0109f5
/encoder/encoder.0/MatMul_output_0: 3c01d641
(Unnamed Layer* 25) [Constant]_output: 3a005b7b
(Unnamed Layer* 26) [Shuffle]_output: 3a005b7b
/encoder/encoder.0/Add_output_0: 3c0256ba
(Unnamed Layer* 29) [Shuffle]_output: 3c367d3d
/encoder/encoder.1/Div_output_0: 3bb853ae
/encoder/encoder.1/Erf_output_0: 3bcf60dd
(Unnamed Layer* 33) [Shuffle]_output: 3c010a14
/encoder/encoder.1/Add_output_0: 3c66baf2
/encoder/encoder.1/Mul_output_0: 3c2280df
(Unnamed Layer* 37) [Shuffle]_output: 3b810a14
/encoder/encoder.1/Mul_1_output_0: 3ba280df
(Unnamed Layer* 39) [Constant]_output: 39810a01
(Unnamed Layer* 40) [Shuffle]_output: 39810a01
/encoder/encoder.2/MatMul_output_0: 3b2e6460
(Unnamed Layer* 42) [Constant]_output: 398108b1
(Unnamed Layer* 43) [Shuffle]_output: 398108b1
/encoder/encoder.2/Add_output_0: 3b2484c7
(Unnamed Layer* 45) [Constant]_output: 0
/Add_1_output_0: 3b0022a0
/decoder/layers.0/norm1/LayerNormalization_output_0: 3c72a7b6
/decoder/layers.0/self_attn/Transpose_output_0: 3c72a7b6
(Unnamed Layer* 53) [Constant]_output: 3a1e0a1f
(Unnamed Layer* 54) [Shuffle]_output: 3a1e0a1f
/decoder/layers.0/self_attn/MatMul_output_0: 3c982683
(Unnamed Layer* 56) [Constant]_output: 0
(Unnamed Layer* 57) [Shuffle]_output: 0
/decoder/layers.0/self_attn/Add_output_0: 3c982683
/decoder/layers.0/self_attn/Reshape_2_output_0: 3c982683
/decoder/layers.0/self_attn/Unsqueeze_output_0: 3c982683
/decoder/layers.0/self_attn/Transpose_1_output_0: 3c982683
/decoder/layers.0/self_attn/Squeeze_output_0: 3c982683
/decoder/layers.0/self_attn/Gather_output_0: 3c982683
/decoder/layers.0/self_attn/Gather_1_output_0: 3c7acd6f
/decoder/layers.0/self_attn/Gather_2_output_0: 3c8541d5
/decoder/layers.0/self_attn/Reshape_3_output_0: 3c982683
/decoder/layers.0/self_attn/Transpose_2_output_0: 3c982683
/decoder/layers.0/self_attn/Reshape_4_output_0: 3c7acd6f
/decoder/layers.0/self_attn/Transpose_3_output_0: 3c7acd6f
/decoder/layers.0/self_attn/Reshape_5_output_0: 3c8541d5
/decoder/layers.0/self_attn/Transpose_4_output_0: 3c8541d5
/decoder/layers.0/self_attn/Reshape_6_output_0: 3c982683
/decoder/layers.0/self_attn/Reshape_7_output_0: 3c7acd6f
/decoder/layers.0/self_attn/Reshape_8_output_0: 3c8541d5
/decoder/layers.0/self_attn/Cast_output_0: 3e810a14
/decoder/layers.0/self_attn/Sqrt_output_0: 3d367d3d
(Unnamed Layer* 122) [Constant]_output: 3c010a14
/decoder/layers.0/self_attn/Div_output_0: 3ab67d3d
/decoder/layers.0/self_attn/Cast_1_output_0: 3ab67d3d
(Unnamed Layer* 130) [Constant]_output: 3c010a14
(Unnamed Layer* 131) [Shuffle]_output: 3c010a14
/decoder/layers.0/self_attn/Expand_output_0: 3c010a14
(Unnamed Layer* 149) [Shuffle]_output: 0
(Unnamed Layer* 150) [ElementWise]_output: 0
/decoder/layers.0/self_attn/Where_output_0: 7b17af5f
/decoder/layers.0/self_attn/Transpose_5_output_0: 3c7acd6f
/decoder/layers.0/self_attn/Sqrt_1_output_0: 3b59047a
(Unnamed Layer* 165) [Shuffle]_output: 3b59047a
/decoder/layers.0/self_attn/Mul_output_0: 3bffe2b0
/decoder/layers.0/self_attn/Sqrt_2_output_0: 3b59047a
(Unnamed Layer* 168) [Shuffle]_output: 3b59047a
/decoder/layers.0/self_attn/Mul_1_output_0: 3bd2e61e
/decoder/layers.0/self_attn/MatMul_1_output_0: 3bad33bb
(Unnamed Layer* 171) [Shuffle]_output: 7b17af5f
/decoder/layers.0/self_attn/Add_2_output_0: 7b17af5f
(Unnamed Layer* 173) [Softmax]_output: 3c010a14
/decoder/layers.0/self_attn/MatMul_2_output_0: 3c8541d6
/decoder/layers.0/self_attn/Transpose_6_output_0: 3c8541d6
/decoder/layers.0/self_attn/Reshape_9_output_0: 3c8541d6
(Unnamed Layer* 178) [Constant]_output: 3a0109ea
(Unnamed Layer* 179) [Matrix Multiply]_output: 3c2819f6
(Unnamed Layer* 180) [Constant]_output: 0
(Unnamed Layer* 181) [Shuffle]_output: 0
/decoder/layers.0/self_attn/Gemm_output_0: 3c2819f6
/decoder/layers.0/self_attn/Reshape_10_output_0: 3c2819f6
/decoder/layers.0/self_attn/Transpose_7_output_0: 3c2819f6
/decoder/layers.0/Add_output_0: 3c16ad56
/decoder/layers.0/norm2/LayerNormalization_output_0: 3cb6a997
/decoder/layers.0/multihead_attn/Transpose_output_0: 3cb6a997
/decoder/layers.0/multihead_attn/Transpose_1_output_0: 3b2484c7
(Unnamed Layer* 193) [Constant]_output: 3a1e0964
(Unnamed Layer* 194) [Shuffle]_output: 3a1e0964
/decoder/layers.0/multihead_attn/MatMul_output_0: 3c88e396
(Unnamed Layer* 196) [Constant]_output: 0
(Unnamed Layer* 197) [Shuffle]_output: 0
/decoder/layers.0/multihead_attn/Add_output_0: 3c88e396
(Unnamed Layer* 199) [Constant]_output: 3a1e0a07
(Unnamed Layer* 200) [Shuffle]_output: 3a1e0a07
/decoder/layers.0/multihead_attn/MatMul_1_output_0: 3b08942f
(Unnamed Layer* 202) [Constant]_output: 0
(Unnamed Layer* 203) [Shuffle]_output: 0
/decoder/layers.0/multihead_attn/Add_1_output_0: 3b08942f
/decoder/layers.0/multihead_attn/Reshape_2_output_0: 3b08942f
/decoder/layers.0/multihead_attn/Unsqueeze_output_0: 3b08942f
/decoder/layers.0/multihead_attn/Transpose_2_output_0: 3b08942f
/decoder/layers.0/multihead_attn/Squeeze_output_0: 3b08942f
/decoder/layers.0/multihead_attn/Gather_output_0: 3ae18674
/decoder/layers.0/multihead_attn/Gather_1_output_0: 3b08942f
/decoder/layers.0/multihead_attn/Reshape_3_output_0: 3c88e396
/decoder/layers.0/multihead_attn/Transpose_3_output_0: 3c88e396
/decoder/layers.0/multihead_attn/Reshape_4_output_0: 3ae18674
/decoder/layers.0/multihead_attn/Transpose_4_output_0: 3ae18674
/decoder/layers.0/multihead_attn/Reshape_5_output_0: 3b08942f
/decoder/layers.0/multihead_attn/Transpose_5_output_0: 3b08942f
/decoder/layers.0/multihead_attn/Reshape_6_output_0: 3c88e396
/decoder/layers.0/multihead_attn/Reshape_7_output_0: 3ae18674
/decoder/layers.0/multihead_attn/Reshape_8_output_0: 3b08942f
/decoder/layers.0/multihead_attn/Cast_output_0: 3e810a14
/decoder/layers.0/multihead_attn/Sqrt_output_0: 3d367d3d
(Unnamed Layer* 264) [Constant]_output: 3c010a14
/decoder/layers.0/multihead_attn/Div_output_0: 3ab67d3d
/decoder/layers.0/multihead_attn/Cast_1_output_0: 3ab67d3d
/decoder/layers.0/multihead_attn/Transpose_6_output_0: 3ae18674
/decoder/layers.0/multihead_attn/Sqrt_1_output_0: 3b59047a
(Unnamed Layer* 269) [Shuffle]_output: 3b59047a
/decoder/layers.0/multihead_attn/Mul_output_0: 3be6380f
/decoder/layers.0/multihead_attn/Sqrt_2_output_0: 3b59047a
(Unnamed Layer* 272) [Shuffle]_output: 3b59047a
/decoder/layers.0/multihead_attn/Mul_1_output_0: 3a3da4b2
/decoder/layers.0/multihead_attn/MatMul_2_output_0: 3aaf3aa7
(Unnamed Layer* 275) [Constant]_output: 7f800000
/decoder/layers.0/multihead_attn/Add_3_output_0: 7f800000
(Unnamed Layer* 277) [Softmax]_output: 3b85afad
/decoder/layers.0/multihead_attn/MatMul_3_output_0: 3a5e5f02
/decoder/layers.0/multihead_attn/Transpose_7_output_0: 3a5e5f02
/decoder/layers.0/multihead_attn/Reshape_9_output_0: 3a5e5f02
(Unnamed Layer* 282) [Constant]_output: 3a0109d7
(Unnamed Layer* 283) [Matrix Multiply]_output: 39eeea9b
(Unnamed Layer* 284) [Constant]_output: 0
(Unnamed Layer* 285) [Shuffle]_output: 0
/decoder/layers.0/multihead_attn/Gemm_output_0: 39eeea9b
/decoder/layers.0/multihead_attn/Reshape_10_output_0: 39eeea9b
/decoder/layers.0/multihead_attn/Transpose_8_output_0: 39eeea9b
/decoder/layers.0/Add_1_output_0: 3c15f0ab
/decoder/layers.0/norm3/LayerNormalization_output_0: 3cb54483
(Unnamed Layer* 295) [Constant]_output: 3a0109cd
(Unnamed Layer* 296) [Shuffle]_output: 3a0109cd
/decoder/layers.0/linear1/MatMul_output_0: 3c705b32
(Unnamed Layer* 298) [Constant]_output: 3a00b4f5
(Unnamed Layer* 299) [Shuffle]_output: 3a00b4f5
/decoder/layers.0/linear1/Add_output_0: 3c5e17c2
(Unnamed Layer* 302) [Shuffle]_output: 3c367d3d
/decoder/layers.0/Div_output_0: 3c1d0b17
/decoder/layers.0/Erf_output_0: 3bf39746
(Unnamed Layer* 306) [Shuffle]_output: 3c010a14
/decoder/layers.0/Add_2_output_0: 3c7ed420
/decoder/layers.0/Mul_output_0: 3cb035a4
(Unnamed Layer* 310) [Shuffle]_output: 3b810a14
/decoder/layers.0/Mul_1_output_0: 3c3035a4
(Unnamed Layer* 312) [Constant]_output: 39810a06
(Unnamed Layer* 313) [Shuffle]_output: 39810a06
/decoder/layers.0/linear2/MatMul_output_0: 3b8e283d
(Unnamed Layer* 315) [Constant]_output: 397ef909
(Unnamed Layer* 316) [Shuffle]_output: 397ef909
/decoder/layers.0/linear2/Add_output_0: 3b884f7f
/decoder/layers.0/Add_3_output_0: 3c163b15
/decoder/layers.1/norm1/LayerNormalization_output_0: 3ca16227
/decoder/layers.1/self_attn/Transpose_output_0: 3ca16227
(Unnamed Layer* 325) [Constant]_output: 3a1e0a1f
(Unnamed Layer* 326) [Shuffle]_output: 3a1e0a1f
/decoder/layers.1/self_attn/MatMul_output_0: 3c80048a
(Unnamed Layer* 328) [Constant]_output: 0
(Unnamed Layer* 329) [Shuffle]_output: 0
/decoder/layers.1/self_attn/Add_output_0: 3c80048a
/decoder/layers.1/self_attn/Reshape_2_output_0: 3c80048a
/decoder/layers.1/self_attn/Unsqueeze_output_0: 3c80048a
/decoder/layers.1/self_attn/Transpose_1_output_0: 3c80048a
/decoder/layers.1/self_attn/Squeeze_output_0: 3c80048a
/decoder/layers.1/self_attn/Gather_output_0: 3c562a35
/decoder/layers.1/self_attn/Gather_1_output_0: 3c7a0a16
/decoder/layers.1/self_attn/Gather_2_output_0: 3c715181
/decoder/layers.1/self_attn/Reshape_3_output_0: 3c562a35
/decoder/layers.1/self_attn/Transpose_2_output_0: 3c562a35
/decoder/layers.1/self_attn/Reshape_4_output_0: 3c7a0a16
/decoder/layers.1/self_attn/Transpose_3_output_0: 3c7a0a16
/decoder/layers.1/self_attn/Reshape_5_output_0: 3c715181
/decoder/layers.1/self_attn/Transpose_4_output_0: 3c715181
/decoder/layers.1/self_attn/Reshape_6_output_0: 3c562a35
/decoder/layers.1/self_attn/Reshape_7_output_0: 3c7a0a16
/decoder/layers.1/self_attn/Reshape_8_output_0: 3c715181
/decoder/layers.1/self_attn/Cast_output_0: 3e810a14
/decoder/layers.1/self_attn/Sqrt_output_0: 3d367d3d
(Unnamed Layer* 391) [Constant]_output: 3c010a14
/decoder/layers.1/self_attn/Div_output_0: 3ab67d3d
/decoder/layers.1/self_attn/Cast_1_output_0: 3ab67d3d
(Unnamed Layer* 399) [Constant]_output: 3c010a14
(Unnamed Layer* 400) [Shuffle]_output: 3c010a14
/decoder/layers.1/self_attn/Expand_output_0: 3c010a14
(Unnamed Layer* 418) [Shuffle]_output: 0
(Unnamed Layer* 419) [ElementWise]_output: 0
/decoder/layers.1/self_attn/Where_output_0: 7b17af5f
/decoder/layers.1/self_attn/Transpose_5_output_0: 3c7a0a16
/decoder/layers.1/self_attn/Sqrt_1_output_0: 3b59047a
(Unnamed Layer* 434) [Shuffle]_output: 3b59047a
/decoder/layers.1/self_attn/Mul_output_0: 3bb4172a
/decoder/layers.1/self_attn/Sqrt_2_output_0: 3b59047a
(Unnamed Layer* 437) [Shuffle]_output: 3b59047a
/decoder/layers.1/self_attn/Mul_1_output_0: 3bd241da
/decoder/layers.1/self_attn/MatMul_1_output_0: 3bf7aa45
(Unnamed Layer* 440) [Shuffle]_output: 7b17af5f
/decoder/layers.1/self_attn/Add_2_output_0: 7b17af5f
(Unnamed Layer* 442) [Softmax]_output: 3b8274ea
/decoder/layers.1/self_attn/MatMul_2_output_0: 3c70bab7
/decoder/layers.1/self_attn/Transpose_6_output_0: 3c70bab7
/decoder/layers.1/self_attn/Reshape_9_output_0: 3c70bab7
(Unnamed Layer* 447) [Constant]_output: 3a0109ea
(Unnamed Layer* 448) [Matrix Multiply]_output: 3c07e4b8
(Unnamed Layer* 449) [Constant]_output: 0
(Unnamed Layer* 450) [Shuffle]_output: 0
/decoder/layers.1/self_attn/Gemm_output_0: 3c07e4b8
/decoder/layers.1/self_attn/Reshape_10_output_0: 3c07e4b8
/decoder/layers.1/self_attn/Transpose_7_output_0: 3c07e4b8
/decoder/layers.1/Add_output_0: 3c4c0197
/decoder/layers.1/norm2/LayerNormalization_output_0: 3c9cd364
/decoder/layers.1/multihead_attn/Transpose_output_0: 3c9cd364
(Unnamed Layer* 461) [Constant]_output: 3a1e0964
(Unnamed Layer* 462) [Shuffle]_output: 3a1e0964
/decoder/layers.1/multihead_attn/MatMul_output_0: 3c8e6564
(Unnamed Layer* 464) [Constant]_output: 0
(Unnamed Layer* 465) [Shuffle]_output: 0
/decoder/layers.1/multihead_attn/Add_output_0: 3c8e6564
(Unnamed Layer* 467) [Constant]_output: 3a1e0a07
(Unnamed Layer* 468) [Shuffle]_output: 3a1e0a07
/decoder/layers.1/multihead_attn/MatMul_1_output_0: 3b08942f
(Unnamed Layer* 470) [Constant]_output: 0
(Unnamed Layer* 471) [Shuffle]_output: 0
/decoder/layers.1/multihead_attn/Add_1_output_0: 3b08942f
/decoder/layers.1/multihead_attn/Reshape_2_output_0: 3b08942f
/decoder/layers.1/multihead_attn/Unsqueeze_output_0: 3b08942f
/decoder/layers.1/multihead_attn/Transpose_1_output_0: 3b08942f
/decoder/layers.1/multihead_attn/Squeeze_output_0: 3b08942f
/decoder/layers.1/multihead_attn/Gather_output_0: 3ae18674
/decoder/layers.1/multihead_attn/Gather_1_output_0: 3b08942f
/decoder/layers.1/multihead_attn/Reshape_3_output_0: 3c8e6564
/decoder/layers.1/multihead_attn/Transpose_2_output_0: 3c8e6564
/decoder/layers.1/multihead_attn/Reshape_4_output_0: 3ae18674
/decoder/layers.1/multihead_attn/Transpose_3_output_0: 3ae18674
/decoder/layers.1/multihead_attn/Reshape_5_output_0: 3b08942f
/decoder/layers.1/multihead_attn/Transpose_4_output_0: 3b08942f
/decoder/layers.1/multihead_attn/Reshape_6_output_0: 3c8e6564
/decoder/layers.1/multihead_attn/Reshape_7_output_0: 3ae18674
/decoder/layers.1/multihead_attn/Reshape_8_output_0: 3b08942f
/decoder/layers.1/multihead_attn/Cast_output_0: 3e810a14
/decoder/layers.1/multihead_attn/Sqrt_output_0: 3d367d3d
(Unnamed Layer* 532) [Constant]_output: 3c010a14
/decoder/layers.1/multihead_attn/Div_output_0: 3ab67d3d
/decoder/layers.1/multihead_attn/Cast_1_output_0: 3ab67d3d
/decoder/layers.1/multihead_attn/Transpose_5_output_0: 3ae18674
/decoder/layers.1/multihead_attn/Sqrt_1_output_0: 3b59047a
(Unnamed Layer* 537) [Shuffle]_output: 3b59047a
/decoder/layers.1/multihead_attn/Mul_output_0: 3bef7b0c
/decoder/layers.1/multihead_attn/Sqrt_2_output_0: 3b59047a
(Unnamed Layer* 540) [Shuffle]_output: 3b59047a
/decoder/layers.1/multihead_attn/Mul_1_output_0: 3a3da4b2
/decoder/layers.1/multihead_attn/MatMul_2_output_0: 3ab6bbd5
(Unnamed Layer* 543) [Constant]_output: 7f800000
/decoder/layers.1/multihead_attn/Add_3_output_0: 7f800000
(Unnamed Layer* 545) [Softmax]_output: 3b85b47d
/decoder/layers.1/multihead_attn/MatMul_3_output_0: 3a5179c4
/decoder/layers.1/multihead_attn/Transpose_6_output_0: 3a5179c4
/decoder/layers.1/multihead_attn/Reshape_9_output_0: 3a5179c4
(Unnamed Layer* 550) [Constant]_output: 3a0109d7
(Unnamed Layer* 551) [Matrix Multiply]_output: 39ebe71c
(Unnamed Layer* 552) [Constant]_output: 0
(Unnamed Layer* 553) [Shuffle]_output: 0
/decoder/layers.1/multihead_attn/Gemm_output_0: 39ebe71c
/decoder/layers.1/multihead_attn/Reshape_10_output_0: 39ebe71c
/decoder/layers.1/multihead_attn/Transpose_7_output_0: 39ebe71c
/decoder/layers.1/Add_1_output_0: 3c50d7db
/decoder/layers.1/norm3/LayerNormalization_output_0: 3ca1a323
(Unnamed Layer* 563) [Constant]_output: 3a0109cd
(Unnamed Layer* 564) [Shuffle]_output: 3a0109cd
/decoder/layers.1/linear1/MatMul_output_0: 3c5b8f68
(Unnamed Layer* 566) [Constant]_output: 3a00b4f5
(Unnamed Layer* 567) [Shuffle]_output: 3a00b4f5
/decoder/layers.1/linear1/Add_output_0: 3c5dbb68
(Unnamed Layer* 570) [Shuffle]_output: 3c367d3d
/decoder/layers.1/Div_output_0: 3c1cc9cb
/decoder/layers.1/Erf_output_0: 3bf25602
(Unnamed Layer* 574) [Shuffle]_output: 3c010a14
/decoder/layers.1/Add_2_output_0: 3c763d0c
/decoder/layers.1/Mul_output_0: 3cd87217
(Unnamed Layer* 578) [Shuffle]_output: 3b810a14
/decoder/layers.1/Mul_1_output_0: 3c587217
(Unnamed Layer* 580) [Constant]_output: 39810a06
(Unnamed Layer* 581) [Shuffle]_output: 39810a06
/decoder/layers.1/linear2/MatMul_output_0: 3b948c68
(Unnamed Layer* 583) [Constant]_output: 397ef909
(Unnamed Layer* 584) [Shuffle]_output: 397ef909
/decoder/layers.1/linear2/Add_output_0: 3b8eb820
/decoder/layers.1/Add_3_output_0: 3c80924c
/decoder/layers.2/norm1/LayerNormalization_output_0: 3cb35213
/decoder/layers.2/self_attn/Transpose_output_0: 3cb35213
(Unnamed Layer* 593) [Constant]_output: 3a1e0a1f
(Unnamed Layer* 594) [Shuffle]_output: 3a1e0a1f
/decoder/layers.2/self_attn/MatMul_output_0: 3c8594bf
(Unnamed Layer* 596) [Constant]_output: 0
(Unnamed Layer* 597) [Shuffle]_output: 0
/decoder/layers.2/self_attn/Add_output_0: 3c8594bf
/decoder/layers.2/self_attn/Reshape_2_output_0: 3c8594bf
/decoder/layers.2/self_attn/Unsqueeze_output_0: 3c8594bf
/decoder/layers.2/self_attn/Transpose_1_output_0: 3c8594bf
/decoder/layers.2/self_attn/Squeeze_output_0: 3c8594bf
/decoder/layers.2/self_attn/Gather_output_0: 3c859685
/decoder/layers.2/self_attn/Gather_1_output_0: 3c5dc88b
/decoder/layers.2/self_attn/Gather_2_output_0: 3c7755c7
/decoder/layers.2/self_attn/Reshape_3_output_0: 3c859685
/decoder/layers.2/self_attn/Transpose_2_output_0: 3c859685
/decoder/layers.2/self_attn/Reshape_4_output_0: 3c5dc88b
/decoder/layers.2/self_attn/Transpose_3_output_0: 3c5dc88b
/decoder/layers.2/self_attn/Reshape_5_output_0: 3c7755c7
/decoder/layers.2/self_attn/Transpose_4_output_0: 3c7755c7
/decoder/layers.2/self_attn/Reshape_6_output_0: 3c859685
/decoder/layers.2/self_attn/Reshape_7_output_0: 3c5dc88b
/decoder/layers.2/self_attn/Reshape_8_output_0: 3c7755c7
/decoder/layers.2/self_attn/Cast_output_0: 3e810a14
/decoder/layers.2/self_attn/Sqrt_output_0: 3d367d3d
(Unnamed Layer* 659) [Constant]_output: 3c010a14
/decoder/layers.2/self_attn/Div_output_0: 3ab67d3d
/decoder/layers.2/self_attn/Cast_1_output_0: 3ab67d3d
(Unnamed Layer* 667) [Constant]_output: 3c010a14
(Unnamed Layer* 668) [Shuffle]_output: 3c010a14
/decoder/layers.2/self_attn/Expand_output_0: 3c010a14
(Unnamed Layer* 686) [Shuffle]_output: 0
(Unnamed Layer* 687) [ElementWise]_output: 0
/decoder/layers.2/self_attn/Where_output_0: 7b17af5f
/decoder/layers.2/self_attn/Transpose_5_output_0: 3c5dc88b
/decoder/layers.2/self_attn/Sqrt_1_output_0: 3b59047a
(Unnamed Layer* 702) [Shuffle]_output: 3b59047a
/decoder/layers.2/self_attn/Mul_output_0: 3be0aad4
/decoder/layers.2/self_attn/Sqrt_2_output_0: 3b59047a
(Unnamed Layer* 705) [Shuffle]_output: 3b59047a
/decoder/layers.2/self_attn/Mul_1_output_0: 3bba7f31
/decoder/layers.2/self_attn/MatMul_1_output_0: 3bd2e0a4
(Unnamed Layer* 708) [Shuffle]_output: 7b17af5f
/decoder/layers.2/self_attn/Add_2_output_0: 7b17af5f
(Unnamed Layer* 710) [Softmax]_output: 3b8254a9
/decoder/layers.2/self_attn/MatMul_2_output_0: 3c73be44
/decoder/layers.2/self_attn/Transpose_6_output_0: 3c73be44
/decoder/layers.2/self_attn/Reshape_9_output_0: 3c73be44
(Unnamed Layer* 715) [Constant]_output: 3a0109ea
(Unnamed Layer* 716) [Matrix Multiply]_output: 3c083ad6
(Unnamed Layer* 717) [Constant]_output: 0
(Unnamed Layer* 718) [Shuffle]_output: 0
/decoder/layers.2/self_attn/Gemm_output_0: 3c083ad6
/decoder/layers.2/self_attn/Reshape_10_output_0: 3c083ad6
/decoder/layers.2/self_attn/Transpose_7_output_0: 3c083ad6
/decoder/layers.2/Add_output_0: 3ca9c3c6
/decoder/layers.2/norm2/LayerNormalization_output_0: 3cb1919e
/decoder/layers.2/multihead_attn/Transpose_output_0: 3cb1919e
(Unnamed Layer* 729) [Constant]_output: 3a1e0964
(Unnamed Layer* 730) [Shuffle]_output: 3a1e0964
/decoder/layers.2/multihead_attn/MatMul_output_0: 3ca49609
(Unnamed Layer* 732) [Constant]_output: 0
(Unnamed Layer* 733) [Shuffle]_output: 0
/decoder/layers.2/multihead_attn/Add_output_0: 3ca49609
(Unnamed Layer* 735) [Constant]_output: 3a1e0a07
(Unnamed Layer* 736) [Shuffle]_output: 3a1e0a07
/decoder/layers.2/multihead_attn/MatMul_1_output_0: 3b08942f
(Unnamed Layer* 738) [Constant]_output: 0
(Unnamed Layer* 739) [Shuffle]_output: 0
/decoder/layers.2/multihead_attn/Add_1_output_0: 3b08942f
/decoder/layers.2/multihead_attn/Reshape_2_output_0: 3b08942f
/decoder/layers.2/multihead_attn/Unsqueeze_output_0: 3b08942f
/decoder/layers.2/multihead_attn/Transpose_1_output_0: 3b08942f
/decoder/layers.2/multihead_attn/Squeeze_output_0: 3b08942f
/decoder/layers.2/multihead_attn/Gather_output_0: 3ae18674
/decoder/layers.2/multihead_attn/Gather_1_output_0: 3b08942f
/decoder/layers.2/multihead_attn/Reshape_3_output_0: 3ca49609
/decoder/layers.2/multihead_attn/Transpose_2_output_0: 3ca49609
/decoder/layers.2/multihead_attn/Reshape_4_output_0: 3ae18674
/decoder/layers.2/multihead_attn/Transpose_3_output_0: 3ae18674
/decoder/layers.2/multihead_attn/Reshape_5_output_0: 3b08942f
/decoder/layers.2/multihead_attn/Transpose_4_output_0: 3b08942f
/decoder/layers.2/multihead_attn/Reshape_6_output_0: 3ca49609
/decoder/layers.2/multihead_attn/Reshape_7_output_0: 3ae18674
/decoder/layers.2/multihead_attn/Reshape_8_output_0: 3b08942f
/decoder/layers.2/multihead_attn/Cast_output_0: 3e810a14
/decoder/layers.2/multihead_attn/Sqrt_output_0: 3d367d3d
(Unnamed Layer* 800) [Constant]_output: 3c010a14
/decoder/layers.2/multihead_attn/Div_output_0: 3ab67d3d
/decoder/layers.2/multihead_attn/Cast_1_output_0: 3ab67d3d
/decoder/layers.2/multihead_attn/Transpose_5_output_0: 3ae18674
/decoder/layers.2/multihead_attn/Sqrt_1_output_0: 3b59047a
(Unnamed Layer* 805) [Shuffle]_output: 3b59047a
/decoder/layers.2/multihead_attn/Mul_output_0: 3c0a665d
/decoder/layers.2/multihead_attn/Sqrt_2_output_0: 3b59047a
(Unnamed Layer* 808) [Shuffle]_output: 3b59047a
/decoder/layers.2/multihead_attn/Mul_1_output_0: 3a3da4b2
/decoder/layers.2/multihead_attn/MatMul_2_output_0: 3ada1895
(Unnamed Layer* 811) [Constant]_output: 7f800000
/decoder/layers.2/multihead_attn/Add_3_output_0: 7f800000
(Unnamed Layer* 813) [Softmax]_output: 3b8de8f7
/decoder/layers.2/multihead_attn/MatMul_3_output_0: 3a5330f6
/decoder/layers.2/multihead_attn/Transpose_6_output_0: 3a5330f6
/decoder/layers.2/multihead_attn/Reshape_9_output_0: 3a5330f6
(Unnamed Layer* 818) [Constant]_output: 3a0109d7
(Unnamed Layer* 819) [Matrix Multiply]_output: 39eb3ad9
(Unnamed Layer* 820) [Constant]_output: 0
(Unnamed Layer* 821) [Shuffle]_output: 0
/decoder/layers.2/multihead_attn/Gemm_output_0: 39eb3ad9
/decoder/layers.2/multihead_attn/Reshape_10_output_0: 39eb3ad9
/decoder/layers.2/multihead_attn/Transpose_7_output_0: 39eb3ad9
/decoder/layers.2/Add_1_output_0: 3ca9a079
/decoder/layers.2/norm3/LayerNormalization_output_0: 3cb15a5e
(Unnamed Layer* 831) [Constant]_output: 3a0109cd
(Unnamed Layer* 832) [Shuffle]_output: 3a0109cd
/decoder/layers.2/linear1/MatMul_output_0: 3c56bf5c
(Unnamed Layer* 834) [Constant]_output: 3a00b4f5
(Unnamed Layer* 835) [Shuffle]_output: 3a00b4f5
/decoder/layers.2/linear1/Add_output_0: 3c59e595
(Unnamed Layer* 838) [Shuffle]_output: 3c367d3d
/decoder/layers.2/Div_output_0: 3c1a1389
/decoder/layers.2/Erf_output_0: 3bea50ee
(Unnamed Layer* 842) [Shuffle]_output: 3c010a14
/decoder/layers.2/Add_2_output_0: 3c6ff675
/decoder/layers.2/Mul_output_0: 3cb099c7
(Unnamed Layer* 846) [Shuffle]_output: 3b810a14
/decoder/layers.2/Mul_1_output_0: 3c3099c7
(Unnamed Layer* 848) [Constant]_output: 39810a06
(Unnamed Layer* 849) [Shuffle]_output: 39810a06
/decoder/layers.2/linear2/MatMul_output_0: 3b85565a
(Unnamed Layer* 851) [Constant]_output: 397ef909
(Unnamed Layer* 852) [Shuffle]_output: 397ef909
/decoder/layers.2/linear2/Add_output_0: 3b7ceb0f
/decoder/layers.2/Add_3_output_0: 3cbaab9f
/decoder/layers.3/norm1/LayerNormalization_output_0: 3cafcd72
/decoder/layers.3/self_attn/Transpose_output_0: 3cafcd72
(Unnamed Layer* 861) [Constant]_output: 3a1e0a1f
(Unnamed Layer* 862) [Shuffle]_output: 3a1e0a1f
/decoder/layers.3/self_attn/MatMul_output_0: 3c828633
(Unnamed Layer* 864) [Constant]_output: 0
(Unnamed Layer* 865) [Shuffle]_output: 0
/decoder/layers.3/self_attn/Add_output_0: 3c828633
/decoder/layers.3/self_attn/Reshape_2_output_0: 3c828633
/decoder/layers.3/self_attn/Unsqueeze_output_0: 3c828633
/decoder/layers.3/self_attn/Transpose_1_output_0: 3c828633
/decoder/layers.3/self_attn/Squeeze_output_0: 3c828633
/decoder/layers.3/self_attn/Gather_output_0: 3c83a0a8
/decoder/layers.3/self_attn/Gather_1_output_0: 3c68014f
/decoder/layers.3/self_attn/Gather_2_output_0: 3c714c5e
/decoder/layers.3/self_attn/Reshape_3_output_0: 3c83a0a8
/decoder/layers.3/self_attn/Transpose_2_output_0: 3c83a0a8
/decoder/layers.3/self_attn/Reshape_4_output_0: 3c68014f
/decoder/layers.3/self_attn/Transpose_3_output_0: 3c68014f
/decoder/layers.3/self_attn/Reshape_5_output_0: 3c714c5e
/decoder/layers.3/self_attn/Transpose_4_output_0: 3c714c5e
/decoder/layers.3/self_attn/Reshape_6_output_0: 3c83a0a8
/decoder/layers.3/self_attn/Reshape_7_output_0: 3c68014f
/decoder/layers.3/self_attn/Reshape_8_output_0: 3c714c5e
/decoder/layers.3/self_attn/Cast_output_0: 3e810a14
/decoder/layers.3/self_attn/Sqrt_output_0: 3d367d3d
(Unnamed Layer* 927) [Constant]_output: 3c010a14
/decoder/layers.3/self_attn/Div_output_0: 3ab67d3d
/decoder/layers.3/self_attn/Cast_1_output_0: 3ab67d3d
(Unnamed Layer* 935) [Constant]_output: 3c010a14
(Unnamed Layer* 936) [Shuffle]_output: 3c010a14
/decoder/layers.3/self_attn/Expand_output_0: 3c010a14
(Unnamed Layer* 954) [Shuffle]_output: 0
(Unnamed Layer* 955) [ElementWise]_output: 0
/decoder/layers.3/self_attn/Where_output_0: 7b17af5f
/decoder/layers.3/self_attn/Transpose_5_output_0: 3c68014f
/decoder/layers.3/self_attn/Sqrt_1_output_0: 3b59047a
(Unnamed Layer* 970) [Shuffle]_output: 3b59047a
/decoder/layers.3/self_attn/Mul_output_0: 3bdd5ecc
/decoder/layers.3/self_attn/Sqrt_2_output_0: 3b59047a
(Unnamed Layer* 973) [Shuffle]_output: 3b59047a
/decoder/layers.3/self_attn/Mul_1_output_0: 3bc3179e
/decoder/layers.3/self_attn/MatMul_1_output_0: 3bb9bd7b
(Unnamed Layer* 976) [Shuffle]_output: 7b17af5f
/decoder/layers.3/self_attn/Add_2_output_0: 7b17af5f
(Unnamed Layer* 978) [Softmax]_output: 3b8274ea
/decoder/layers.3/self_attn/MatMul_2_output_0: 3c78625d
/decoder/layers.3/self_attn/Transpose_6_output_0: 3c78625d
/decoder/layers.3/self_attn/Reshape_9_output_0: 3c78625d
(Unnamed Layer* 983) [Constant]_output: 3a0109ea
(Unnamed Layer* 984) [Matrix Multiply]_output: 3c047508
(Unnamed Layer* 985) [Constant]_output: 0
(Unnamed Layer* 986) [Shuffle]_output: 0
/decoder/layers.3/self_attn/Gemm_output_0: 3c047508
/decoder/layers.3/self_attn/Reshape_10_output_0: 3c047508
/decoder/layers.3/self_attn/Transpose_7_output_0: 3c047508
/decoder/layers.3/Add_output_0: 3ce9ee88
/decoder/layers.3/norm2/LayerNormalization_output_0: 3cb50c2c
/decoder/layers.3/multihead_attn/Transpose_output_0: 3cb50c2c
(Unnamed Layer* 997) [Constant]_output: 3a1e0964
(Unnamed Layer* 998) [Shuffle]_output: 3a1e0964
/decoder/layers.3/multihead_attn/MatMul_output_0: 3c86f65d
(Unnamed Layer* 1000) [Constant]_output: 0
(Unnamed Layer* 1001) [Shuffle]_output: 0
/decoder/layers.3/multihead_attn/Add_output_0: 3c86f65d
(Unnamed Layer* 1003) [Constant]_output: 3a1e0a07
(Unnamed Layer* 1004) [Shuffle]_output: 3a1e0a07
/decoder/layers.3/multihead_attn/MatMul_1_output_0: 3b08942f
(Unnamed Layer* 1006) [Constant]_output: 0
(Unnamed Layer* 1007) [Shuffle]_output: 0
/decoder/layers.3/multihead_attn/Add_1_output_0: 3b08942f
/decoder/layers.3/multihead_attn/Reshape_2_output_0: 3b08942f
/decoder/layers.3/multihead_attn/Unsqueeze_output_0: 3b08942f
/decoder/layers.3/multihead_attn/Transpose_1_output_0: 3b08942f
/decoder/layers.3/multihead_attn/Squeeze_output_0: 3b08942f
/decoder/layers.3/multihead_attn/Gather_output_0: 3ae18674
/decoder/layers.3/multihead_attn/Gather_1_output_0: 3b08942f
/decoder/layers.3/multihead_attn/Reshape_3_output_0: 3c86f65d
/decoder/layers.3/multihead_attn/Transpose_2_output_0: 3c86f65d
/decoder/layers.3/multihead_attn/Reshape_4_output_0: 3ae18674
/decoder/layers.3/multihead_attn/Transpose_3_output_0: 3ae18674
/decoder/layers.3/multihead_attn/Reshape_5_output_0: 3b08942f
/decoder/layers.3/multihead_attn/Transpose_4_output_0: 3b08942f
/decoder/layers.3/multihead_attn/Reshape_6_output_0: 3c86f65d
/decoder/layers.3/multihead_attn/Reshape_7_output_0: 3ae18674
/decoder/layers.3/multihead_attn/Reshape_8_output_0: 3b08942f
/decoder/layers.3/multihead_attn/Cast_output_0: 3e810a14
/decoder/layers.3/multihead_attn/Sqrt_output_0: 3d367d3d
(Unnamed Layer* 1068) [Constant]_output: 3c010a14
/decoder/layers.3/multihead_attn/Div_output_0: 3ab67d3d
/decoder/layers.3/multihead_attn/Cast_1_output_0: 3ab67d3d
/decoder/layers.3/multihead_attn/Transpose_5_output_0: 3ae18674
/decoder/layers.3/multihead_attn/Sqrt_1_output_0: 3b59047a
(Unnamed Layer* 1073) [Shuffle]_output: 3b59047a
/decoder/layers.3/multihead_attn/Mul_output_0: 3be2fa8d
/decoder/layers.3/multihead_attn/Sqrt_2_output_0: 3b59047a
(Unnamed Layer* 1076) [Shuffle]_output: 3b59047a
/decoder/layers.3/multihead_attn/Mul_1_output_0: 3a3da4b2
/decoder/layers.3/multihead_attn/MatMul_2_output_0: 3a7b2c38
(Unnamed Layer* 1079) [Constant]_output: 7f800000
/decoder/layers.3/multihead_attn/Add_3_output_0: 7f800000
(Unnamed Layer* 1081) [Softmax]_output: 3b8dbdb4
/decoder/layers.3/multihead_attn/MatMul_3_output_0: 3a495f11
/decoder/layers.3/multihead_attn/Transpose_6_output_0: 3a495f11
/decoder/layers.3/multihead_attn/Reshape_9_output_0: 3a495f11
(Unnamed Layer* 1086) [Constant]_output: 3a0109d7
(Unnamed Layer* 1087) [Matrix Multiply]_output: 39fbf6ba
(Unnamed Layer* 1088) [Constant]_output: 0
(Unnamed Layer* 1089) [Shuffle]_output: 0
/decoder/layers.3/multihead_attn/Gemm_output_0: 39fbf6ba
/decoder/layers.3/multihead_attn/Reshape_10_output_0: 39fbf6ba
/decoder/layers.3/multihead_attn/Transpose_7_output_0: 39fbf6ba
/decoder/layers.3/Add_1_output_0: 3cedef3a
/decoder/layers.3/norm3/LayerNormalization_output_0: 3c9cbc7f
(Unnamed Layer* 1099) [Constant]_output: 3a0109cd
(Unnamed Layer* 1100) [Shuffle]_output: 3a0109cd
/decoder/layers.3/linear1/MatMul_output_0: 3c5737bc
(Unnamed Layer* 1102) [Constant]_output: 3a00b4f5
(Unnamed Layer* 1103) [Shuffle]_output: 3a00b4f5
/decoder/layers.3/linear1/Add_output_0: 3c5d4121
(Unnamed Layer* 1106) [Shuffle]_output: 3c367d3d
/decoder/layers.3/Div_output_0: 3c1c7354
/decoder/layers.3/Erf_output_0: 3beb05a4
(Unnamed Layer* 1110) [Shuffle]_output: 3c010a14
/decoder/layers.3/Add_2_output_0: 3c75bdc8
/decoder/layers.3/Mul_output_0: 3cb0316e
(Unnamed Layer* 1114) [Shuffle]_output: 3b810a14
/decoder/layers.3/Mul_1_output_0: 3c30316e
(Unnamed Layer* 1116) [Constant]_output: 39810a06
(Unnamed Layer* 1117) [Shuffle]_output: 39810a06
/decoder/layers.3/linear2/MatMul_output_0: 3b853ae9
(Unnamed Layer* 1119) [Constant]_output: 397ef909
(Unnamed Layer* 1120) [Shuffle]_output: 397ef909
/decoder/layers.3/linear2/Add_output_0: 3b8205b7
/decoder/layers.3/Add_3_output_0: 3cf648e9
/decoder/layers.4/norm1/LayerNormalization_output_0: 3cb70de1
/decoder/layers.4/self_attn/Transpose_output_0: 3cb70de1
(Unnamed Layer* 1129) [Constant]_output: 3a1e0a1f
(Unnamed Layer* 1130) [Shuffle]_output: 3a1e0a1f
/decoder/layers.4/self_attn/MatMul_output_0: 3c86e98a
(Unnamed Layer* 1132) [Constant]_output: 0
(Unnamed Layer* 1133) [Shuffle]_output: 0
/decoder/layers.4/self_attn/Add_output_0: 3c86e98a
/decoder/layers.4/self_attn/Reshape_2_output_0: 3c86e98a
/decoder/layers.4/self_attn/Unsqueeze_output_0: 3c86e98a
/decoder/layers.4/self_attn/Transpose_1_output_0: 3c86e98a
/decoder/layers.4/self_attn/Squeeze_output_0: 3c86e98a
/decoder/layers.4/self_attn/Gather_output_0: 3c7897e9
/decoder/layers.4/self_attn/Gather_1_output_0: 3c6c8510
/decoder/layers.4/self_attn/Gather_2_output_0: 3c91e50e
/decoder/layers.4/self_attn/Reshape_3_output_0: 3c7897e9
/decoder/layers.4/self_attn/Transpose_2_output_0: 3c7897e9
/decoder/layers.4/self_attn/Reshape_4_output_0: 3c6c8510
/decoder/layers.4/self_attn/Transpose_3_output_0: 3c6c8510
/decoder/layers.4/self_attn/Reshape_5_output_0: 3c91e50e
/decoder/layers.4/self_attn/Transpose_4_output_0: 3c91e50e
/decoder/layers.4/self_attn/Reshape_6_output_0: 3c7897e9
/decoder/layers.4/self_attn/Reshape_7_output_0: 3c6c8510
/decoder/layers.4/self_attn/Reshape_8_output_0: 3c91e50e
/decoder/layers.4/self_attn/Cast_output_0: 3e810a14
/decoder/layers.4/self_attn/Sqrt_output_0: 3d367d3d
(Unnamed Layer* 1195) [Constant]_output: 3c010a14
/decoder/layers.4/self_attn/Div_output_0: 3ab67d3d
/decoder/layers.4/self_attn/Cast_1_output_0: 3ab67d3d
(Unnamed Layer* 1203) [Constant]_output: 3c010a14
(Unnamed Layer* 1204) [Shuffle]_output: 3c010a14
/decoder/layers.4/self_attn/Expand_output_0: 3c010a14
(Unnamed Layer* 1222) [Shuffle]_output: 0
(Unnamed Layer* 1223) [ElementWise]_output: 0
/decoder/layers.4/self_attn/Where_output_0: 7b17af5f
/decoder/layers.4/self_attn/Transpose_5_output_0: 3c6c8510
/decoder/layers.4/self_attn/Sqrt_1_output_0: 3b59047a
(Unnamed Layer* 1238) [Shuffle]_output: 3b59047a
/decoder/layers.4/self_attn/Mul_output_0: 3bd10a93
/decoder/layers.4/self_attn/Sqrt_2_output_0: 3b59047a
(Unnamed Layer* 1241) [Shuffle]_output: 3b59047a
/decoder/layers.4/self_attn/Mul_1_output_0: 3bc6e37e
/decoder/layers.4/self_attn/MatMul_1_output_0: 3bb7e521
(Unnamed Layer* 1244) [Shuffle]_output: 7b17af5f
/decoder/layers.4/self_attn/Add_2_output_0: 7b17af5f
(Unnamed Layer* 1246) [Softmax]_output: 3b81d3a7
/decoder/layers.4/self_attn/MatMul_2_output_0: 3c930b12
/decoder/layers.4/self_attn/Transpose_6_output_0: 3c930b12
/decoder/layers.4/self_attn/Reshape_9_output_0: 3c930b12
(Unnamed Layer* 1251) [Constant]_output: 3a0109ea
(Unnamed Layer* 1252) [Matrix Multiply]_output: 3c005763
(Unnamed Layer* 1253) [Constant]_output: 0
(Unnamed Layer* 1254) [Shuffle]_output: 0
/decoder/layers.4/self_attn/Gemm_output_0: 3c005763
/decoder/layers.4/self_attn/Reshape_10_output_0: 3c005763
/decoder/layers.4/self_attn/Transpose_7_output_0: 3c005763
/decoder/layers.4/Add_output_0: 3d1156d4
/decoder/layers.4/norm2/LayerNormalization_output_0: 3cb209ba
/decoder/layers.4/multihead_attn/Transpose_output_0: 3cb209ba
(Unnamed Layer* 1265) [Constant]_output: 3a1e0964
(Unnamed Layer* 1266) [Shuffle]_output: 3a1e0964
/decoder/layers.4/multihead_attn/MatMul_output_0: 3c9be68a
(Unnamed Layer* 1268) [Constant]_output: 0
(Unnamed Layer* 1269) [Shuffle]_output: 0
/decoder/layers.4/multihead_attn/Add_output_0: 3c9be68a
(Unnamed Layer* 1271) [Constant]_output: 3a1e0a07
(Unnamed Layer* 1272) [Shuffle]_output: 3a1e0a07
/decoder/layers.4/multihead_attn/MatMul_1_output_0: 3b08942f
(Unnamed Layer* 1274) [Constant]_output: 0
(Unnamed Layer* 1275) [Shuffle]_output: 0
/decoder/layers.4/multihead_attn/Add_1_output_0: 3b08942f
/decoder/layers.4/multihead_attn/Reshape_2_output_0: 3b08942f
/decoder/layers.4/multihead_attn/Unsqueeze_output_0: 3b08942f
/decoder/layers.4/multihead_attn/Transpose_1_output_0: 3b08942f
/decoder/layers.4/multihead_attn/Squeeze_output_0: 3b08942f
/decoder/layers.4/multihead_attn/Gather_output_0: 3ae18674
/decoder/layers.4/multihead_attn/Gather_1_output_0: 3b08942f
/decoder/layers.4/multihead_attn/Reshape_3_output_0: 3c9be68a
/decoder/layers.4/multihead_attn/Transpose_2_output_0: 3c9be68a
/decoder/layers.4/multihead_attn/Reshape_4_output_0: 3ae18674
/decoder/layers.4/multihead_attn/Transpose_3_output_0: 3ae18674
/decoder/layers.4/multihead_attn/Reshape_5_output_0: 3b08942f
/decoder/layers.4/multihead_attn/Transpose_4_output_0: 3b08942f
/decoder/layers.4/multihead_attn/Reshape_6_output_0: 3c9be68a
/decoder/layers.4/multihead_attn/Reshape_7_output_0: 3ae18674
/decoder/layers.4/multihead_attn/Reshape_8_output_0: 3b08942f
/decoder/layers.4/multihead_attn/Cast_output_0: 3e810a14
/decoder/layers.4/multihead_attn/Sqrt_output_0: 3d367d3d
(Unnamed Layer* 1336) [Constant]_output: 3c010a14
/decoder/layers.4/multihead_attn/Div_output_0: 3ab67d3d
/decoder/layers.4/multihead_attn/Cast_1_output_0: 3ab67d3d
/decoder/layers.4/multihead_attn/Transpose_5_output_0: 3ae18674
/decoder/layers.4/multihead_attn/Sqrt_1_output_0: 3b59047a
(Unnamed Layer* 1341) [Shuffle]_output: 3b59047a
/decoder/layers.4/multihead_attn/Mul_output_0: 3c0318a2
/decoder/layers.4/multihead_attn/Sqrt_2_output_0: 3b59047a
(Unnamed Layer* 1344) [Shuffle]_output: 3b59047a
/decoder/layers.4/multihead_attn/Mul_1_output_0: 3a3da4b2
/decoder/layers.4/multihead_attn/MatMul_2_output_0: 3acb33ad
(Unnamed Layer* 1347) [Constant]_output: 7f800000
/decoder/layers.4/multihead_attn/Add_3_output_0: 7f800000
(Unnamed Layer* 1349) [Softmax]_output: 3b89216a
/decoder/layers.4/multihead_attn/MatMul_3_output_0: 3a3daa19
/decoder/layers.4/multihead_attn/Transpose_6_output_0: 3a3daa19
/decoder/layers.4/multihead_attn/Reshape_9_output_0: 3a3daa19
(Unnamed Layer* 1354) [Constant]_output: 3a0109d7
(Unnamed Layer* 1355) [Matrix Multiply]_output: 3a218031
(Unnamed Layer* 1356) [Constant]_output: 0
(Unnamed Layer* 1357) [Shuffle]_output: 0
/decoder/layers.4/multihead_attn/Gemm_output_0: 3a218031
/decoder/layers.4/multihead_attn/Reshape_10_output_0: 3a218031
/decoder/layers.4/multihead_attn/Transpose_7_output_0: 3a218031
/decoder/layers.4/Add_1_output_0: 3d1215e5
/decoder/layers.4/norm3/LayerNormalization_output_0: 3cb2b961
(Unnamed Layer* 1367) [Constant]_output: 3a0109cd
(Unnamed Layer* 1368) [Shuffle]_output: 3a0109cd
/decoder/layers.4/linear1/MatMul_output_0: 3c5c7916
(Unnamed Layer* 1370) [Constant]_output: 3a00b4f5
(Unnamed Layer* 1371) [Shuffle]_output: 3a00b4f5
/decoder/layers.4/linear1/Add_output_0: 3c5faef8
(Unnamed Layer* 1374) [Shuffle]_output: 3c367d3d
/decoder/layers.4/Div_output_0: 3c1e2b09
/decoder/layers.4/Erf_output_0: 3becbb87
(Unnamed Layer* 1378) [Shuffle]_output: 3c010a14
/decoder/layers.4/Add_2_output_0: 3c727141
/decoder/layers.4/Mul_output_0: 3cbadd34
(Unnamed Layer* 1382) [Shuffle]_output: 3b810a14
/decoder/layers.4/Mul_1_output_0: 3c3add34
(Unnamed Layer* 1384) [Constant]_output: 39810a06
(Unnamed Layer* 1385) [Shuffle]_output: 39810a06
/decoder/layers.4/linear2/MatMul_output_0: 3b85d50f
(Unnamed Layer* 1387) [Constant]_output: 397ef909
(Unnamed Layer* 1388) [Shuffle]_output: 397ef909
/decoder/layers.4/linear2/Add_output_0: 3b827f5b
/decoder/layers.4/Add_3_output_0: 3d15aff3
/decoder/layers.5/norm1/LayerNormalization_output_0: 3cae3825
/decoder/layers.5/self_attn/Transpose_output_0: 3cae3825
(Unnamed Layer* 1397) [Constant]_output: 3a1e0a1f
(Unnamed Layer* 1398) [Shuffle]_output: 3a1e0a1f
/decoder/layers.5/self_attn/MatMul_output_0: 3c8d0cf9
(Unnamed Layer* 1400) [Constant]_output: 0
(Unnamed Layer* 1401) [Shuffle]_output: 0
/decoder/layers.5/self_attn/Add_output_0: 3c8d0cf9
/decoder/layers.5/self_attn/Reshape_2_output_0: 3c8d0cf9
/decoder/layers.5/self_attn/Unsqueeze_output_0: 3c8d0cf9
/decoder/layers.5/self_attn/Transpose_1_output_0: 3c8d0cf9
/decoder/layers.5/self_attn/Squeeze_output_0: 3c8d0cf9
/decoder/layers.5/self_attn/Gather_output_0: 3c6aa27d
/decoder/layers.5/self_attn/Gather_1_output_0: 3c7a144e
/decoder/layers.5/self_attn/Gather_2_output_0: 3c8dbe1c
/decoder/layers.5/self_attn/Reshape_3_output_0: 3c6aa27d
/decoder/layers.5/self_attn/Transpose_2_output_0: 3c6aa27d
/decoder/layers.5/self_attn/Reshape_4_output_0: 3c7a144e
/decoder/layers.5/self_attn/Transpose_3_output_0: 3c7a144e
/decoder/layers.5/self_attn/Reshape_5_output_0: 3c8dbe1c
/decoder/layers.5/self_attn/Transpose_4_output_0: 3c8dbe1c
/decoder/layers.5/self_attn/Reshape_6_output_0: 3c6aa27d
/decoder/layers.5/self_attn/Reshape_7_output_0: 3c7a144e
/decoder/layers.5/self_attn/Reshape_8_output_0: 3c8dbe1c
/decoder/layers.5/self_attn/Cast_output_0: 3e810a14
/decoder/layers.5/self_attn/Sqrt_output_0: 3d367d3d
(Unnamed Layer* 1463) [Constant]_output: 3c010a14
/decoder/layers.5/self_attn/Div_output_0: 3ab67d3d
/decoder/layers.5/self_attn/Cast_1_output_0: 3ab67d3d
(Unnamed Layer* 1471) [Constant]_output: 3c010a14
(Unnamed Layer* 1472) [Shuffle]_output: 3c010a14
/decoder/layers.5/self_attn/Expand_output_0: 3c010a14
(Unnamed Layer* 1490) [Shuffle]_output: 0
(Unnamed Layer* 1491) [ElementWise]_output: 0
/decoder/layers.5/self_attn/Where_output_0: 7b17af5f
/decoder/layers.5/self_attn/Transpose_5_output_0: 3c7a144e
/decoder/layers.5/self_attn/Sqrt_1_output_0: 3b59047a
(Unnamed Layer* 1506) [Shuffle]_output: 3b59047a
/decoder/layers.5/self_attn/Mul_output_0: 3bc54db2
/decoder/layers.5/self_attn/Sqrt_2_output_0: 3b59047a
(Unnamed Layer* 1509) [Shuffle]_output: 3b59047a
/decoder/layers.5/self_attn/Mul_1_output_0: 3bd24a71
/decoder/layers.5/self_attn/MatMul_1_output_0: 3bd2e971
(Unnamed Layer* 1512) [Shuffle]_output: 7b17af5f
/decoder/layers.5/self_attn/Add_2_output_0: 7b17af5f
(Unnamed Layer* 1514) [Softmax]_output: 3a7e7cfa
/decoder/layers.5/self_attn/MatMul_2_output_0: 3c8bfce7
/decoder/layers.5/self_attn/Transpose_6_output_0: 3c8bfce7
/decoder/layers.5/self_attn/Reshape_9_output_0: 3c8bfce7
(Unnamed Layer* 1519) [Constant]_output: 3a0109ea
(Unnamed Layer* 1520) [Matrix Multiply]_output: 3bfdee3c
(Unnamed Layer* 1521) [Constant]_output: 0
(Unnamed Layer* 1522) [Shuffle]_output: 0
/decoder/layers.5/self_attn/Gemm_output_0: 3bfdee3c
/decoder/layers.5/self_attn/Reshape_10_output_0: 3bfdee3c
/decoder/layers.5/self_attn/Transpose_7_output_0: 3bfdee3c
/decoder/layers.5/Add_output_0: 3d29338d
/decoder/layers.5/norm2/LayerNormalization_output_0: 3ca8da31
/decoder/layers.5/multihead_attn/Transpose_output_0: 3ca8da31
(Unnamed Layer* 1533) [Constant]_output: 3a1e0964
(Unnamed Layer* 1534) [Shuffle]_output: 3a1e0964
/decoder/layers.5/multihead_attn/MatMul_output_0: 3c8f837e
(Unnamed Layer* 1536) [Constant]_output: 0
(Unnamed Layer* 1537) [Shuffle]_output: 0
/decoder/layers.5/multihead_attn/Add_output_0: 3c8f837e
(Unnamed Layer* 1539) [Constant]_output: 3a1e0a07
(Unnamed Layer* 1540) [Shuffle]_output: 3a1e0a07
/decoder/layers.5/multihead_attn/MatMul_1_output_0: 3b08942f
(Unnamed Layer* 1542) [Constant]_output: 0
(Unnamed Layer* 1543) [Shuffle]_output: 0
/decoder/layers.5/multihead_attn/Add_1_output_0: 3b08942f
/decoder/layers.5/multihead_attn/Reshape_2_output_0: 3b08942f
/decoder/layers.5/multihead_attn/Unsqueeze_output_0: 3b08942f
/decoder/layers.5/multihead_attn/Transpose_1_output_0: 3b08942f
/decoder/layers.5/multihead_attn/Squeeze_output_0: 3b08942f
/decoder/layers.5/multihead_attn/Gather_output_0: 3ae18674
/decoder/layers.5/multihead_attn/Gather_1_output_0: 3b08942f
/decoder/layers.5/multihead_attn/Reshape_3_output_0: 3c8f837e
/decoder/layers.5/multihead_attn/Transpose_2_output_0: 3c8f837e
/decoder/layers.5/multihead_attn/Reshape_4_output_0: 3ae18674
/decoder/layers.5/multihead_attn/Transpose_3_output_0: 3ae18674
/decoder/layers.5/multihead_attn/Reshape_5_output_0: 3b08942f
/decoder/layers.5/multihead_attn/Transpose_4_output_0: 3b08942f
/decoder/layers.5/multihead_attn/Reshape_6_output_0: 3c8f837e
/decoder/layers.5/multihead_attn/Reshape_7_output_0: 3ae18674
/decoder/layers.5/multihead_attn/Reshape_8_output_0: 3b08942f
/decoder/layers.5/multihead_attn/Cast_output_0: 3e810a14
/decoder/layers.5/multihead_attn/Sqrt_output_0: 3d367d3d
(Unnamed Layer* 1604) [Constant]_output: 3c010a14
/decoder/layers.5/multihead_attn/Div_output_0: 3ab67d3d
/decoder/layers.5/multihead_attn/Cast_1_output_0: 3ab67d3d
/decoder/layers.5/multihead_attn/Transpose_5_output_0: 3ae18674
/decoder/layers.5/multihead_attn/Sqrt_1_output_0: 3b59047a
(Unnamed Layer* 1609) [Shuffle]_output: 3b59047a
/decoder/layers.5/multihead_attn/Mul_output_0: 3bf15c37
/decoder/layers.5/multihead_attn/Sqrt_2_output_0: 3b59047a
(Unnamed Layer* 1612) [Shuffle]_output: 3b59047a
/decoder/layers.5/multihead_attn/Mul_1_output_0: 3a3da4b2
/decoder/layers.5/multihead_attn/MatMul_2_output_0: 3abc74b2
(Unnamed Layer* 1615) [Constant]_output: 7f800000
/decoder/layers.5/multihead_attn/Add_3_output_0: 7f800000
(Unnamed Layer* 1617) [Softmax]_output: 3b89926a
/decoder/layers.5/multihead_attn/MatMul_3_output_0: 3a5b0db8
/decoder/layers.5/multihead_attn/Transpose_6_output_0: 3a5b0db8
/decoder/layers.5/multihead_attn/Reshape_9_output_0: 3a5b0db8
(Unnamed Layer* 1622) [Constant]_output: 3a0109d7
(Unnamed Layer* 1623) [Matrix Multiply]_output: 39d56676
(Unnamed Layer* 1624) [Constant]_output: 0
(Unnamed Layer* 1625) [Shuffle]_output: 0
/decoder/layers.5/multihead_attn/Gemm_output_0: 39d56676
/decoder/layers.5/multihead_attn/Reshape_10_output_0: 39d56676
/decoder/layers.5/multihead_attn/Transpose_7_output_0: 39d56676
/decoder/layers.5/Add_1_output_0: 3d2a1a65
/decoder/layers.5/norm3/LayerNormalization_output_0: 3ca92deb
(Unnamed Layer* 1635) [Constant]_output: 3a0109cd
(Unnamed Layer* 1636) [Shuffle]_output: 3a0109cd
/decoder/layers.5/linear1/MatMul_output_0: 3c641d60
(Unnamed Layer* 1638) [Constant]_output: 3a00b4f5
(Unnamed Layer* 1639) [Shuffle]_output: 3a00b4f5
/decoder/layers.5/linear1/Add_output_0: 3c5e52b4
(Unnamed Layer* 1642) [Shuffle]_output: 3c367d3d
/decoder/layers.5/Div_output_0: 3c1d34c6
/decoder/layers.5/Erf_output_0: 3bec4b07
(Unnamed Layer* 1646) [Shuffle]_output: 3c010a14
/decoder/layers.5/Add_2_output_0: 3c76b30f
/decoder/layers.5/Mul_output_0: 3cc97cf7
(Unnamed Layer* 1650) [Shuffle]_output: 3b810a14
/decoder/layers.5/Mul_1_output_0: 3c497cf7
(Unnamed Layer* 1652) [Constant]_output: 39810a06
(Unnamed Layer* 1653) [Shuffle]_output: 39810a06
/decoder/layers.5/linear2/MatMul_output_0: 3b82a6bf
(Unnamed Layer* 1655) [Constant]_output: 397ef909
(Unnamed Layer* 1656) [Shuffle]_output: 397ef909
/decoder/layers.5/linear2/Add_output_0: 3b7e9f93
/decoder/layers.5/Add_3_output_0: 3d35067d
/ln_f/LayerNormalization_output_0: 3cb13f9c
(Unnamed Layer* 1664) [Constant]_output: 3a00ad06
(Unnamed Layer* 1665) [Shuffle]_output: 3a00ad06
/head/MatMul_output_0: 3bd49f4d
(Unnamed Layer* 1667) [Constant]_output: 39ea9242
(Unnamed Layer* 1668) [Shuffle]_output: 39ea9242
action: 3bdecaf5
